{"version":"1.0","truncation":null,"padding":{"strategy":"BatchLongest","direction":"Right","pad_to_multiple_of":24,"pad_id":0,"pad_type_id":0,"pad_token":"[PAD]"},"added_tokens":[],"normalizer":null,"pre_tokenizer":{"type":"Whitespace"},"post_processor":null,"decoder":null,"model":{"type":"WordPiece","unk_token":"[UNK]","continuing_subword_prefix":"##","max_input_chars_per_word":100,"vocab":{"\u001a":0,"\"":1,",":2,"0":3,"1":4,"2":5,"3":6,"4":7,"5":8,"6":9,"7":10,"8":11,"9":12,"a":13,"b":14,"c":15,"d":16,"e":17,"f":18,"g":19,"h":20,"i":21,"j":22,"k":23,"l":24,"m":25,"n":26,"o":27,"p":28,"q":29,"r":30,"s":31,"t":32,"u":33,"v":34,"w":35,"x":36,"y":37,"z":38,"":39,"##3":40,"##1":41,"##0":42,"##6":43,"##7":44,"##5":45,"##4":46,"##8":47,"##9":48,"##2":49,"##u":50,"##x":51,"##e":52,"##o":53,"##i":54,"##l":55,"##a":56,"##n":57,"##t":58,"##y":59,"##f":60,"##b":61,"##c":62,"##d":63,"##s":64,"##r":65,"##m":66,"##q":67,"##g":68,"##v":69,"##h":70,"##p":71,"##w":72,"##k":73,"##j":74,"##z":75,"##\"":76,"##es":77,"##an":78,"##on":79,"##in":80,"##er":81,"##ou":82,"##is":83,"##le":84,"##re":85,"##it":86,"##ar":87,"##at":88,"##en":89,"##ch":90,"##il":91,"##ra":92,"##te":93,"##or":94,"##ol":95,"##el":96,"##et":97,"##qu":98,"##al":99,"##ur":100,"##ti":101,"ch":102,"##ro":103,"##am":104,"##au":105,"bi":106,"##ic":107,"##ant":108,"##ot":109,"##me":110,"##as":111,"##ge":112,"la":113,"##res":114,"##de":115,"##oc":116,"bio":117,"##se":118,"##om":119,"##ac":120,"##ve":121,"##ent":122,"##oi":123,"##our":124,"##tes":125,"##ois":126,"##les":127,"st":128,"##let":129,"##ce":130,"##uit":131,"##che":132,"##um":133,"##ri":134,"cr":135,"sa":136,"au":137,"##ine":138,"##que":139,"std":140,"##ure":141,"##ab":142,"bl":143,"##us":144,"choc":145,"##ille":146,"##ne":147,"##ion":148,"##ing":149,"##amp":150,"##ran":151,"##olat":152,"lait":153,"chocolat":154,"##ie":155,"su":156,"##ert":157,"##iss":158,"##ag":159,"ca":160,"##ig":161,"fra":162,"dou":163,"mar":164,"##ss":165,"an":166,"##ill":167,"nat":168,"car":169,"##age":170,"##erm":171,"##33":172,"##11":173,"##00":174,"##26":175,"##27":176,"##25":177,"##24":178,"##28":179,"##29":180,"##oo":181,"pro":182,"##uits":183,"##ons":184,"in":185,"##ier":186,"sau":187,"##ec":188,"##35":189,"##34":190,"##16":191,"##17":192,"##15":193,"##14":194,"##18":195,"##19":196,"##06":197,"##07":198,"##05":199,"##04":200,"##08":201,"##09":202,"crme":203,"ma":204,"##36":205,"ex":206,"sh":207,"##si":208,"##37":209,"##38":210,"##39":211,"##ff":212,"so":213,"##eu":214,"pou":215,"##ric":216,"sp":217,"nature":218,"fr":219,"##ul":220,"al":221,"##os":222,"##ai":223,"##tra":224,"aut":225,"##ettes":226,"con":227,"##ques":228,"col":229,"li":230,"mi":231,"##ui":232,"pa":233,"noi":234,"##ate":235,"les":236,"autres":237,"shamp":238,"bou":239,"##ard":240,"pl":241,"##ise":242,"blan":243,"##ches":244,"pom":245,"##ps":246,"##rom":247,"##od":248,"pet":249,"cl":250,"##ooing":251,"##66":252,"##77":253,"##55":254,"##44":255,"##88":256,"##99":257,"gl":258,"par":259,"mou":260,"re":261,"##elle":262,"##ut":263,"petit":264,"##ron":265,"##and":266,"##iz":267,"##aux":268,"mois":269,"##ette":270,"##op":271,"##isc":272,"shampooing":273,"ver":274,"##ation":275,"gel":276,"##ta":277,"##amb":278,"des":279,"##ique":280,"##og":281,"##67":282,"##65":283,"##64":284,"##68":285,"##69":286,"##ment":287,"##li":288,"##chan":289,"pot":290,"auchan":291,"##22":292,"##cti":293,"bisc":294,"min":295,"fl":296,"##erman":297,"ap":298,"##leur":299,"##75":300,"##74":301,"##78":302,"##79":303,"com":304,"from":305,"perman":306,"rou":307,"co":308,"ml":309,"cou":310,"##ais":311,"anti":312,"le":313,"##ux":314,"##oy":315,"##ia":316,"##uile":317,"blanc":318,"##ers":319,"##ide":320,"##ond":321,"##rs":322,"sen":323,"##id":324,"pe":325,"be":326,"##sse":327,"##ue":328,"##enti":329,"poulet":330,"##54":331,"##58":332,"##59":333,"##ante":334,"en":335,"caf":336,"##lette":337,"hy":338,"##mb":339,"##ins":340,"suc":341,"14":342,"18":343,"19":344,"24":345,"28":346,"29":347,"34":348,"38":349,"39":350,"44":351,"48":352,"49":353,"noir":354,"cra":355,"##uc":356,"##32":357,"##12":358,"##02":359,"##ell":360,"##ret":361,"##ines":362,"extra":363,"bar":364,"##pe":365,"##ort":366,"##rat":367,"th":368,"conf":369,"permanent":370,"comp":371,"te":372,"##chet":373,"cit":374,"fruits":375,"che":376,"pomme":377,"biscuits":378,"##ter":379,"##ants":380,"sachet":381,"ar":382,"##ub":383,"douche":384,"lg":385,"bo":386,"##ive":387,"van":388,"marques":389,"fromage":390,"cor":391,"color":392,"##ade":393,"jamb":394,"##umes":395,"liqu":396,"##ien":397,"soin":398,"br":399,"##ite":400,"##31":401,"##30":402,"##aire":403,"citron":404,"jambon":405,"##if":406,"##veur":407,"cro":408,"##ande":409,"bon":410,"gra":411,"##ina":412,"##ire":413,"##odor":414,"huile":415,"dess":416,"saveur":417,"##isse":418,"pr":419,"cu":420,"##10":421,"##illes":422,"sauce":423,"bois":424,"fleur":425,"jus":426,"vol":427,"mas":428,"vanille":429,"lav":430,"de":431,"##lettes":432,"##ad":433,"##tin":434,"##ib":435,"##ign":436,"can":437,"bire":438,"##rice":439,"ro":440,"##son":441,"coc":442,"ul":443,"sup":444,"##int":445,"##ral":446,"##ett":447,"##ref":448,"mon":449,"vert":450,"##ges":451,"##57":452,"##ir":453,"##out":454,"##est":455,"##olog":456,"liquide":457,"dessert":458,"bro":459,"lgumes":460,"sou":461,"rouge":462,"sal":463,"##nes":464,"##ry":465,"ble":466,"doux":467,"parf":468,"sauc":469,"pic":470,"##ane":471,"hyd":472,"##cheur":473,"##av":474,"am":475,"dor":476,"##refour":477,"eau":478,"carrefour":479,"ta":480,"ter":481,"tran":482,"##orm":483,"##01":484,"tom":485,"##62":486,"poi":487,"##ay":488,"##ages":489,"##un":490,"##amel":491,"15":492,"25":493,"35":494,"45":495,"pur":496,"##ction":497,"##ore":498,"mini":499,"##sive":500,"##entif":501,"glac":502,"boute":503,"##odorant":504,"pt":505,"##mes":506,"dentif":507,"##ang":508,"##euf":509,"##ip":510,"dodorant":511,"##za":512,"##erg":513,"clas":514,"dentifrice":515,"pas":516,"beur":517,"##dre":518,"po":519,"17":520,"27":521,"37":522,"47":523,"##ap":524,"##st":525,"sec":526,"riz":527,"lessive":528,"caramel":529,"##13":530,"gour":531,"##vre":532,"fab":533,"beurre":534,"##03":535,"##ules":536,"sav":537,"prote":538,"##ress":539,"##ack":540,"##co":541,"##rit":542,"##ale":543,"cre":544,"wh":545,"boisson":546,"tab":547,"nett":548,"##iv":549,"##he":550,"ya":551,"##ct":552,"frais":553,"##rig":554,"##ans":555,"##ourt":556,"##veux":557,"ass":558,"miel":559,"##ray":560,"ultra":561,"##ologique":562,"int":563,"cheveux":564,"fran":565,"##im":566,"##48":567,"##49":568,"##orti":569,"douce":570,"##acon":571,"##ial":572,"##rop":573,"yaourt":574,"##tique":575,"nettoy":576,"crales":577,"##ma":578,"peaux":579,"##oise":580,"##la":581,"##ance":582,"##io":583,"##its":584,"mat":585,"##issant":586,"bas":587,"ment":588,"ab":589,"tar":590,"fabric":591,"four":592,"fi":593,"##oie":594,"##89":595,"mo":596,"ga":597,"bab":598,"bouteille":599,"##ume":600,"fabricants":601,"biologique":602,"gr":603,"##agne":604,"##20":605,"sens":606,"##ind":607,"sucre":608,"##ium":609,"un":610,"##ottes":611,"sachets":612,"##21":613,"##tic":614,"##teur":615,"parfum":616,"moul":617,"el":618,"inten":619,"ad":620,"inf":621,"on":622,"pices":623,"##23":624,"confit":625,"##quet":626,"fraise":627,"##ros":628,"##ies":629,"##mon":630,"baby":631,"lot":632,"spray":633,"##onn":634,"per":635,"bri":636,"##60":637,"petits":638,"plas":639,"pan":640,"##61":641,"hydrat":642,"gran":643,"framb":644,"caps":645,"chat":646,"##63":647,"sel":648,"va":649,"exp":650,"##vres":651,"##ect":652,"canard":653,"lo":654,"##98":655,"menthe":656,"##inte":657,"##bons":658,"orig":659,"off":660,"qu":661,"tub":662,"##par":663,"flacon":664,"sol":665,"es":666,"acti":667,"##air":668,"ds":669,"ess":670,"fond":671,"tranches":672,"har":673,"nettoyant":674,"gourm":675,"##ange":676,"##erv":677,"mul":678,"se":679,"##car":680,"poudre":681,"max":682,"##ist":683,"sc":684,"##84":685,"##onde":686,"##resh":687,"##94":688,"lvres":689,"got":690,"fruit":691,"taille":692,"classi":693,"lab":694,"##ka":695,"coco":696,"bonbons":697,"prov":698,"norm":699,"capsules":700,"tra":701,"plastique":702,"nois":703,"##ice":704,"##ys":705,"framboise":706,"gre":707,"pure":708,"vis":709,"chi":710,"##tre":711,"##ere":712,"##ain":713,"##able":714,"dent":715,"16":716,"26":717,"36":718,"46":719,"enti":720,"piz":721,"##inal":722,"paris":723,"tube":724,"##pes":725,"sensi":726,"rose":727,"##andes":728,"##ables":729,"mousse":730,"champ":731,"##usion":732,"dol":733,"##erb":734,"oeuf":735,"confiture":736,"##hy":737,"##nis":738,"##ates":739,"##ateur":740,"super":741,"spc":742,"vit":743,"##all":744,"##ites":745,"cuis":746,"mor":747,"ling":748,"sauciss":749,"blonde":750,"ong":751,"mix":752,"sensib":753,"vernis":754,"glace":755,"dan":756,"oli":757,"pizza":758,"visage":759,"nut":760,"##orc":761,"##ots":762,"##45":763,"mich":764,"pommes":765,"dos":766,"cas":767,"ve":768,"##char":769,"##85":770,"pamp":771,"##95":772,"##lets":773,"##47":774,"foie":775,"##ous":776,"ptes":777,"xl":778,"##87":779,"nest":780,"##97":781,"##rt":782,"may":783,"fracheur":784,"masque":785,"pap":786,"ge":787,"##ak":788,"savon":789,"intense":790,"##ht":791,"lit":792,"##aise":793,"##tis":794,"##dit":795,"sur":796,"no":797,"ongles":798,"france":799,"fresh":800,"##rie":801,"porc":802,"##da":803,"##tr":804,"pre":805,"ten":806,"for":807,"lavages":808,"##isselle":809,"marse":810,"12":811,"22":812,"32":813,"42":814,"52":815,"char":816,"sans":817,"croqu":818,"mam":819,"rechar":820,"infusion":821,"brosse":822,"vin":823,"coloration":824,"proven":825,"oran":826,"mag":827,"oeufs":828,"##oire":829,"##elles":830,"corps":831,"dem":832,"##erie":833,"conc":834,"nu":835,"##pl":836,"vi":837,"ac":838,"bour":839,"ras":840,"##ust":841,"rh":842,"##isk":843,"men":844,"##ini":845,"si":846,"bu":847,"##ets":848,"mic":849,"noix":850,"bote":851,"##aca":852,"spcial":853,"original":854,"##ong":855,"rg":856,"aj":857,"##mo":858,"##eux":859,"pi":860,"arom":861,"paquet":862,"multi":863,"moulu":864,"expert":865,"##ales":866,"del":867,"##illant":868,"sucres":869,"pois":870,"pte":871,"tomate":872,"couleur":873,"##org":874,"brut":875,"##ton":876,"ros":877,"##ienne":878,"assorti":879,"sirop":880,"##ote":881,"cru":882,"sport":883,"coff":884,"##gra":885,"couches":886,"##ino":887,"##bio":888,"##dina":889,"dar":890,"chips":891,"##des":892,"gras":893,"lingettes":894,"douceur":895,"caca":896,"du":897,"pin":898,"teint":899,"pche":900,"##quette":901,"##ves":902,"saucisse":903,"all":904,"soupe":905,"##gan":906,"herb":907,"##ts":908,"salade":909,"assortiment":910,"##mou":911,"terre":912,"di":913,"coffret":914,"##ple":915,"##ilic":916,"units":917,"##va":918,"me":919,"cur":920,"em":921,"dc":922,"plat":923,"##ach":924,"##otes":925,"air":926,"far":927,"jard":928,"tomates":929,"orange":930,"poire":931,"rec":932,"ep":933,"##bl":934,"hydratant":935,"offert":936,"ag":937,"protection":938,"grat":939,"whisk":940,"##oing":941,"##igre":942,"and":943,"my":944,"vg":945,"##ricot":946,"##iles":947,"white":948,"sensibles":949,"##ana":950,"jardin":951,"cer":952,"ferm":953,"ec":954,"scot":955,"##sion":956,"saint":957,"recharge":958,"##tion":959,"##rim":960,"##ph":961,"##one":962,"concent":963,"chvre":964,"##oir":965,"##76":966,"##use":967,"dolive":968,"##dition":969,"##otte":970,"##56":971,"##af":972,"scotch":973,"saumon":974,"##ble":975,"aop":976,"##tel":977,"cuit":978,"vina":979,"dents":980,"entier":981,"feu":982,"##ile":983,"##mbre":984,"##iche":985,"bre":986,"##huile":987,"cal":988,"nive":989,"lor":990,"##ica":991,"##72":992,"rhum":993,"mal":994,"##to":995,"lind":996,"##52":997,"##iant":998,"pil":999,"nivea":1000,"dl":1001,"bret":1002,"##omme":1003,"mayb":1004,"10":1005,"20":1006,"30":1007,"40":1008,"50":1009,"gou":1010,"aromat":1011,"mer":1012,"vel":1013,"prem":1014,"long":1015,"##ignons":1016,"ans":1017,"sensit":1018,"11":1019,"21":1020,"31":1021,"41":1022,"51":1023,"tablette":1024,"bain":1025,"##alal":1026,"saveurs":1027,"fa":1028,"classique":1029,"ajout":1030,"##resso":1031,"##len":1032,"##per":1033,"##tinables":1034,"##paration":1035,"nuit":1036,"din":1037,"##ritif":1038,"##isant":1039,"##ood":1040,"##als":1041,"pain":1042,"##tal":1043,"shampoing":1044,"13":1045,"23":1046,"33":1047,"43":1048,"53":1049,"##46":1050,"pampers":1051,"mil":1052,"bra":1053,"nestle":1054,"chien":1055,"noisettes":1056,"##elline":1057,"pat":1058,"gar":1059,"gau":1060,"ban":1061,"##86":1062,"##70":1063,"lar":1064,"barres":1065,"maybelline":1066,"##ison":1067,"##96":1068,"trs":1069,"rep":1070,"##71":1071,"##50":1072,"##ger":1073,"thon":1074,"##act":1075,"cap":1076,"sensitive":1077,"##illettes":1078,"##51":1079,"##tick":1080,"##ax":1081,"grand":1082,"herbes":1083,"##42":1084,"##73":1085,"barquette":1086,"##ues":1087,"sk":1088,"##th":1089,"##rine":1090,"teinte":1091,"##53":1092,"##82":1093,"##anc":1094,"##pi":1095,"mang":1096,"##ly":1097,"lhuile":1098,"##92":1099,"vola":1100,"concentr":1101,"##ente":1102,"he":1103,"##ru":1104,"##ich":1105,"essenti":1106,"##ight":1107,"dinde":1108,"cos":1109,"croquettes":1110,"saucisson":1111,"sch":1112,"esp":1113,"##ber":1114,"##are":1115,"mont":1116,"##ld":1117,"sches":1118,"trop":1119,"##bon":1120,"##maqu":1121,"maxi":1122,"dau":1123,"##tar":1124,"apritif":1125,"##vit":1126,"tri":1127,"toi":1128,"##40":1129,"dmaqu":1130,"##41":1131,"yeux":1132,"##ola":1133,"##be":1134,"##80":1135,"##uten":1136,"fil":1137,"bleu":1138,"kn":1139,"##43":1140,"##81":1141,"##90":1142,"##ace":1143,"##ord":1144,"##ame":1145,"tablettes":1146,"##91":1147,"galettes":1148,"stick":1149,"av":1150,"##83":1151,"##93":1152,"##lection":1153,"##aud":1154,"maison":1155,"fer":1156,"boeuf":1157,"##ow":1158,"whisky":1159,"##ces":1160,"##ens":1161,"##rab":1162,"##ix":1163,"fe":1164,"ptit":1165,"brio":1166,"##ck":1167,"pers":1168,"homme":1169,"volaille":1170,"##illais":1171,"abricot":1172,"halal":1173,"fleury":1174,"jour":1175,"##duit":1176,"##mental":1177,"##enne":1178,"creme":1179,"or":1180,"ant":1181,"nour":1182,"gluten":1183,"rouges":1184,"blond":1185,"toilette":1186,"carottes":1187,"michon":1188,"fleurs":1189,"class":1190,"camp":1191,"##ver":1192,"gaz":1193,"luc":1194,"##mel":1195,"##oss":1196,"##euse":1197,"##ft":1198,"pp":1199,"soj":1200,"myrt":1201,"enf":1202,"bledina":1203,"classic":1204,"phy":1205,"serv":1206,"##fs":1207,"marseillais":1208,"pasteur":1209,"##ocal":1210,"sun":1211,"gourmand":1212,"mangue":1213,"lindt":1214,"tropic":1215,"eff":1216,"servi":1217,"cot":1218,"##aume":1219,"##bre":1220,"solaire":1221,"fum":1222,"perf":1223,"##oe":1224,"provence":1225,"dosettes":1226,"maman":1227,"form":1228,"##illon":1229,"##rand":1230,"sign":1231,"vaisselle":1232,"##yl":1233,"vinaigre":1234,"cire":1235,"tradition":1236,"filet":1237,"olives":1238,"derm":1239,"black":1240,"##iere":1241,"bonne":1242,"duo":1243,"blancheur":1244,"poivre":1245,"##cool":1246,"fines":1247,"champagne":1248,"cle":1249,"gu":1250,"##pr":1251,"pilot":1252,"##ze":1253,"care":1254,"##sl":1255,"protect":1256,"pots":1257,"##nelle":1258,"chta":1259,"pasteuris":1260,"##pin":1261,"ajouts":1262,"bloc":1263,"buf":1264,"premium":1265,"gouter":1266,"baume":1267,"##illette":1268,"duc":1269,"nou":1270,"mascar":1271,"##leil":1272,"##dou":1273,"natur":1274,"##une":1275,"##rale":1276,"lore":1277,"piment":1278,"label":1279,"cacao":1280,"terrine":1281,"man":1282,"amande":1283,"verre":1284,"tartin":1285,"##oirs":1286,"banane":1287,"bocal":1288,"loreal":1289,"natu":1290,"##rss":1291,"non":1292,"peau":1293,"nl":1294,"##orr":1295,"biscuit":1296,"dam":1297,"prparation":1298,"active":1299,"micell":1300,"kar":1301,"##elin":1302,"bt":1303,"##hu":1304,"spec":1305,"fin":1306,"cock":1307,"##rel":1308,"cosm":1309,"liquid":1310,"basilic":1311,"pow":1312,"ey":1313,"rtinables":1314,"tou":1315,"##tail":1316,"##ook":1317,"pul":1318,"##bo":1319,"classiques":1320,"cour":1321,"aprss":1322,"lam":1323,"roy":1324,"##oust":1325,"##iers":1326,"cocktail":1327,"##ene":1328,"ind":1329,"soja":1330,"emmental":1331,"micellaire":1332,"grill":1333,"filets":1334,"haric":1335,"amandes":1336,"##illa":1337,"ne":1338,"##gate":1339,"nutrit":1340,"alcool":1341,"at":1342,"gazeuse":1343,"clat":1344,"hu":1345,"colgate":1346,"complet":1347,"chor":1348,"hyg":1349,"##rette":1350,"rgion":1351,"##ices":1352,"##ano":1353,"cass":1354,"antip":1355,"##oni":1356,"##ast":1357,"##rum":1358,"##gg":1359,"##ible":1360,"##ceaux":1361,"##nt":1362,"##sc":1363,"lent":1364,"noisette":1365,"sac":1366,"gren":1367,"boug":1368,"cid":1369,"clair":1370,"##hamp":1371,"##els":1372,"pack":1373,"##cal":1374,"##pro":1375,"fig":1376,"yop":1377,"signal":1378,"btonn":1379,"dsodor":1380,"##oll":1381,"do":1382,"choriz":1383,"##anas":1384,"##brand":1385,"lotus":1386,"cuisin":1387,"morceaux":1388,"ufs":1389,"croust":1390,"##onne":1391,"pral":1392,"normal":1393,"##antes":1394,"frache":1395,"moutar":1396,"hen":1397,"pal":1398,"moutarde":1399,"dss":1400,"rais":1401,"noire":1402,"mascara":1403,"the":1404,"extr":1405,"antit":1406,"##dium":1407,"##dele":1408,"garn":1409,"dry":1410,"chorizo":1411,"##ani":1412,"lin":1413,"activ":1414,"##derm":1415,"vera":1416,"pau":1417,"inst":1418,"##vr":1419,"espresso":1420,"secs":1421,"babybio":1422,"arg":1423,"ppites":1424,"##oine":1425,"permanente":1426,"dsodorisant":1427,"##eur":1428,"##ils":1429,"prot":1430,"base":1431,"nourr":1432,"soleil":1433,"nobrand":1434,"rim":1435,"mac":1436,"knorr":1437,"boite":1438,"mains":1439,"jau":1440,"##yon":1441,"##ouc":1442,"aromatise":1443,"hau":1444,"cuiss":1445,"verts":1446,"malt":1447,"fourres":1448,"##ager":1449,"bj":1450,"##orb":1451,"ail":1452,"ig":1453,"##chon":1454,"jac":1455,"##ieux":1456,"leg":1457,"bjorg":1458,"mg":1459,"andros":1460,"nutrition":1461,"##ls":1462,"srum":1463,"tour":1464,"##seve":1465,"elseve":1466,"##ero":1467,"lanc":1468,"blanche":1469,"serviettes":1470,"tartiner":1471,"cook":1472,"diff":1473,"haricots":1474,"##pt":1475,"res":1476,"porti":1477,"lie":1478,"is":1479,"##igne":1480,"##fort":1481,"mod":1482,"##sp":1483,"rasoir":1484,"##ala":1485,"suprie":1486,"nect":1487,"##fr":1488,"##get":1489,"myrtille":1490,"##tt":1491,"dal":1492,"##ige":1493,"power":1494,"compote":1495,"minrale":1496,"##cteur":1497,"soda":1498,"##ras":1499,"aprsshamp":1500,"passion":1501,"prim":1502,"verte":1503,"enfant":1504,"campagne":1505,"moy":1506,"gele":1507,"##tisan":1508,"lancienne":1509,"ser":1510,"##ises":1511,"bur":1512,"lip":1513,"coqu":1514,"gte":1515,"##rique":1516,"ste":1517,"kit":1518,"rimmel":1519,"lou":1520,"##oth":1521,"cat":1522,"nectar":1523,"##pa":1524,"##ish":1525,"pol":1526,"##icul":1527,"igp":1528,"##issance":1529,"cidre":1530,"tot":1531,"##oli":1532,"pays":1533,"##ipp":1534,"##ont":1535,"##nd":1536,"##zza":1537,"##ick":1538,"rti":1539,"##bis":1540,"apais":1541,"ari":1542,"##tim":1543,"litre":1544,"mouch":1545,"lac":1546,"tor":1547,"brass":1548,"den":1549,"natural":1550,"spcialit":1551,"marseille":1552,"vier":1553,"champignons":1554,"adul":1555,"##ox":1556,"mus":1557,"sour":1558,"reg":1559,"fsl":1560,"##illi":1561,"##ence":1562,"sard":1563,"##ives":1564,"marie":1565,"kind":1566,"clean":1567,"ice":1568,"##tiques":1569,"lat":1570,"##sons":1571,"vierge":1572,"artisan":1573,"##ude":1574,"cream":1575,"hydratante":1576,"##gum":1577,"total":1578,"aqu":1579,"michel":1580,"gen":1581,"sensation":1582,"loral":1583,"crm":1584,"kinder":1585,"rillettes":1586,"##ean":1587,"sche":1588,"bol":1589,"mel":1590,"not":1591,"velout":1592,"lust":1593,"tr":1594,"##cl":1595,"green":1596,"##fl":1597,"##din":1598,"mlange":1599,"##ifiant":1600,"##ule":1601,"bougie":1602,"gros":1603,"##ucru":1604,"##ey":1605,"saucisses":1606,"mn":1607,"lustucru":1608,"##aut":1609,"milka":1610,"nap":1611,"ananas":1612,"format":1613,"rav":1614,"gamb":1615,"dmaquillant":1616,"produit":1617,"arab":1618,"##urs":1619,"crayon":1620,"brebis":1621,"apres":1622,"beige":1623,"lavande":1624,"dorange":1625,"##uide":1626,"to":1627,"##wing":1628,"##up":1629,"moelle":1630,"recette":1631,"pulpe":1632,"dp":1633,"maqu":1634,"fins":1635,"##illante":1636,"sainte":1637,"##nce":1638,"gol":1639,"cul":1640,"karit":1641,"##po":1642,"jo":1643,"ren":1644,"rpar":1645,"lentilles":1646,"instant":1647,"energ":1648,"ducros":1649,"btonnets":1650,"sabl":1651,"quino":1652,"gaul":1653,"viande":1654,"cam":1655,"##acy":1656,"tarte":1657,"##uelle":1658,"##lait":1659,"ben":1660,"arabica":1661,"##nat":1662,"##hn":1663,"##chi":1664,"coeur":1665,"gaulois":1666,"adouc":1667,"carte":1668,"gal":1669,"chtain":1670,"cerise":1671,"quinoa":1672,"oral":1673,"##ignon":1674,"volume":1675,"##ffe":1676,"prof":1677,"fluide":1678,"fix":1679,"lames":1680,"eco":1681,"choco":1682,"sub":1683,"vah":1684,"hach":1685,"bouteilles":1686,"primacy":1687,"val":1688,"boire":1689,"crev":1690,"fort":1691,"chewing":1692,"corn":1693,"##ibo":1694,"##ito":1695,"##erta":1696,"##ays":1697,"##ody":1698,"yaourts":1699,"marm":1700,"##avel":1701,"ambre":1702,"sm":1703,"fre":1704,"herta":1705,"haribo":1706,"panz":1707,"sn":1708,"jaune":1709,"##arine":1710,"ferme":1711,"fine":1712,"op":1713,"##hyd":1714,"##cs":1715,"curry":1716,"ph":1717,"dra":1718,"##lor":1719,"bross":1720,"ton":1721,"barb":1722,"##naise":1723,"plus":1724,"parfume":1725,"gin":1726,"##lim":1727,"lucie":1728,"chocolats":1729,"jean":1730,"riche":1731,"sand":1732,"panzani":1733,"aux":1734,"proc":1735,"##issante":1736,"fondant":1737,"vertes":1738,"##aff":1739,"san":1740,"souple":1741,"gold":1742,"fromages":1743,"##jois":1744,"garnier":1745,"ariel":1746,"sais":1747,"##ures":1748,"bond":1749,"fam":1750,"##tier":1751,"##ded":1752,"flo":1753,"coton":1754,"pres":1755,"bonduelle":1756,"ha":1757,"##ellicul":1758,"sardines":1759,"##br":1760,"doses":1761,"##min":1762,"##chy":1763,"##rella":1764,"aprsshampooing":1765,"dop":1766,"dej":1767,"cassis":1768,"frai":1769,"rgional":1770,"##ner":1771,"##mat":1772,"glules":1773,"brioche":1774,"diffuse":1775,"tout":1776,"wat":1777,"antige":1778,"##ister":1779,"##ms":1780,"nes":1781,"mixa":1782,"bolog":1783,"martin":1784,"nestl":1785,"##rac":1786,"##ierre":1787,"##iques":1788,"faon":1789,"##moule":1790,"##elliculaire":1791,"lave":1792,"##col":1793,"adoucissant":1794,"133":1795,"111":1796,"100":1797,"126":1798,"127":1799,"125":1800,"124":1801,"128":1802,"129":1803,"135":1804,"134":1805,"116":1806,"117":1807,"115":1808,"114":1809,"118":1810,"119":1811,"106":1812,"107":1813,"105":1814,"104":1815,"108":1816,"109":1817,"136":1818,"137":1819,"138":1820,"139":1821,"166":1822,"177":1823,"155":1824,"144":1825,"188":1826,"199":1827,"233":1828,"211":1829,"200":1830,"226":1831,"227":1832,"225":1833,"224":1834,"228":1835,"229":1836,"235":1837,"234":1838,"216":1839,"217":1840,"215":1841,"214":1842,"218":1843,"219":1844,"206":1845,"207":1846,"205":1847,"204":1848,"208":1849,"209":1850,"236":1851,"237":1852,"238":1853,"239":1854,"266":1855,"277":1856,"255":1857,"244":1858,"288":1859,"299":1860,"333":1861,"311":1862,"300":1863,"326":1864,"327":1865,"325":1866,"324":1867,"328":1868,"329":1869,"335":1870,"334":1871,"316":1872,"317":1873,"315":1874,"314":1875,"318":1876,"319":1877,"306":1878,"307":1879,"305":1880,"304":1881,"308":1882,"309":1883,"336":1884,"337":1885,"338":1886,"339":1887,"366":1888,"377":1889,"355":1890,"344":1891,"388":1892,"399":1893,"433":1894,"411":1895,"400":1896,"426":1897,"427":1898,"425":1899,"424":1900,"428":1901,"429":1902,"435":1903,"434":1904,"416":1905,"417":1906,"415":1907,"414":1908,"418":1909,"419":1910,"406":1911,"407":1912,"405":1913,"404":1914,"408":1915,"409":1916,"436":1917,"437":1918,"438":1919,"439":1920,"466":1921,"477":1922,"455":1923,"444":1924,"488":1925,"499":1926,"533":1927,"511":1928,"500":1929,"526":1930,"527":1931,"525":1932,"524":1933,"528":1934,"529":1935,"535":1936,"534":1937,"516":1938,"517":1939,"515":1940,"514":1941,"518":1942,"519":1943,"506":1944,"507":1945,"505":1946,"504":1947,"508":1948,"509":1949,"##ush":1950,"fourrs":1951,"sw":1952,"bourjois":1953,"diffuseur":1954,"moulin":1955,"##ds":1956,"sorb":1957,"ss":1958,"mad":1959,"magn":1960,"##lemou":1961,"hipp":1962,"confort":1963,"##nded":1964,"blended":1965,"cere":1966,"love":1967,"cuisson":1968,"##berry":1969,"##ril":1970,"gourmet":1971,"graines":1972,"##ards":1973,"##don":1974,"##ments":1975,"tea":1976,"bille":1977,"##ways":1978,"always":1979,"mozza":1980,"fro":1981,"rom":1982,"uht":1983,"bel":1984,"croissance":1985,"brique":1986,"##gn":1987,"semoule":1988,"cab":1989,"danette":1990,"fermier":1991,"tip":1992,"##ga":1993,"carotte":1994,"cosmia":1995,"rev":1996,"lipton":1997,"coq":1998,"pamplemou":1999,"special":2000,"top":2001,"tamp":2002,"double":2003,"damande":2004,"age":2005,"sy":2006,"aloe":2007,"sandw":2008,"us":2009,"papier":2010,"##dy":2011,"##alit":2012,"good":2013,"tendre":2014,"##aine":2015,"##ash":2016,"lgre":2017,"sorbet":2018,"##time":2019,"cola":2020,"ric":2021,"##rumes":2022,"secret":2023,"naturel":2024,"lotion":2025,"ba":2026,"gn":2027,"##irant":2028,"procter":2029,"sandwich":2030,"##ole":2031,"##rims":2032,"brow":2033,"##anger":2034,"mozzarella":2035,"skin":2036,"##cr":2037,"fruc":2038,"comprims":2039,"brun":2040,"##ibre":2041,"gratuit":2042,"##ock":2043,"fri":2044,"roche":2045,"ele":2046,"exc":2047,"nouilles":2048,"##agn":2049,"apc":2050,"gamble":2051,"promo":2052,"##umin":2053,"lique":2054,"boul":2055,"pamplemousse":2056,"crpes":2057,"bot":2058,"kid":2059,"##bert":2060,"##etti":2061,"provenale":2062,"dlice":2063,"triple":2064,"cont":2065,"plate":2066,"mnager":2067,"fit":2068,"cuisine":2069,"forte":2070,"##gras":2071,"pierre":2072,"slection":2073,"bld":2074,"tranche":2075,"gauf":2076,"bolognaise":2077,"action":2078,"##ess":2079,"vgtal":2080,"ravi":2081,"167":2082,"165":2083,"164":2084,"168":2085,"169":2086,"175":2087,"174":2088,"178":2089,"179":2090,"154":2091,"158":2092,"159":2093,"267":2094,"265":2095,"264":2096,"268":2097,"269":2098,"275":2099,"274":2100,"278":2101,"279":2102,"254":2103,"258":2104,"259":2105,"367":2106,"365":2107,"364":2108,"368":2109,"369":2110,"375":2111,"374":2112,"378":2113,"379":2114,"354":2115,"358":2116,"359":2117,"467":2118,"465":2119,"464":2120,"468":2121,"469":2122,"475":2123,"474":2124,"478":2125,"479":2126,"454":2127,"458":2128,"459":2129,"we":2130,"head":2131,"perfect":2132,"sat":2133,"##dent":2134,"pice":2135,"##dd":2136,"cad":2137,"abs":2138,"cons":2139,"surgras":2140,"tw":2141,"antipelliculaire":2142,"demis":2143,"glam":2144,"##oux":2145,"grenade":2146,"##mme":2147,"cafe":2148,"micro":2149,"eye":2150,"##lat":2151,"##ieur":2152,"ki":2153,"repair":2154,"huiles":2155,"cookies":2156,"euc":2157,"savoie":2158,"grains":2159,"ti":2160,"bourg":2161,"pop":2162,"##ould":2163,"##iak":2164,"liqueur":2165,"##ista":2166,"portions":2167,"##gi":2168,"##geois":2169,"miss":2170,"tex":2171,"plais":2172,"##gs":2173,"moyen":2174,"##vis":2175,"##tale":2176,"yoplait":2177,"fructis":2178,"suprieur":2179,"jet":2180,"gourde":2181,"charles":2182,"red":2183,"bldina":2184,"##berg":2185,"paupi":2186,"javel":2187,"bouillon":2188,"bal":2189,"##debo":2190,"chewinggum":2191,"##ior":2192,"hydra":2193,"cran":2194,"express":2195,"courg":2196,"ce":2197,"sodebo":2198,"schw":2199,"tu":2200,"##mm":2201,"##xe":2202,"##of":2203,"gillette":2204,"##sif":2205,"##delez":2206,"fraicheur":2207,"mondelez":2208,"cui":2209,"modle":2210,"##omm":2211,"gout":2212,"light":2213,"ty":2214,"##ba":2215,"oignons":2216,"dals":2217,"vitam":2218,"veget":2219,"barbec":2220,"##tle":2221,"sucr":2222,"repas":2223,"##illance":2224,"sauv":2225,"dove":2226,"##ura":2227,"##agh":2228,"dalsace":2229,"pate":2230,"moelleux":2231,"belle":2232,"##ym":2233,"ple":2234,"mouchoirs":2235,"da":2236,"dr":2237,"##ogne":2238,"bat":2239,"lect":2240,"nourrissant":2241,"marmottes":2242,"barbecue":2243,"naturnes":2244,"famil":2245,"dgra":2246,"silic":2247,"ker":2248,"nutri":2249,"spagh":2250,"als":2251,"escal":2252,"##allerg":2253,"ital":2254,"##mey":2255,"souff":2256,"lact":2257,"cacahu":2258,"fon":2259,"##oiff":2260,"extrme":2261,"sabls":2262,"##oises":2263,"##acti":2264,"coul":2265,"##ait":2266,"##fid":2267,"bien":2268,"pince":2269,"vgtale":2270,"persil":2271,"boudin":2272,"##utti":2273,"crack":2274,"ber":2275,"zro":2276,"argan":2277,"dm":2278,"dore":2279,"##go":2280,"tui":2281,"maquere":2282,"##py":2283,"##spirant":2284,"et":2285,"beaut":2286,"##vel":2287,"##ato":2288,"##onnaise":2289,"prune":2290,"pasqu":2291,"rparateur":2292,"ri":2293,"pasquier":2294,"disc":2295,"suv":2296,"ref":2297,"##arin":2298,"multius":2299,"dargan":2300,"lectrique":2301,"glaces":2302,"##ilk":2303,"blister":2304,"colors":2305,"gemey":2306,"##kel":2307,"arme":2308,"mues":2309,"prop":2310,"bron":2311,"laitire":2312,"parm":2313,"glamour":2314,"##end":2315,"##oulders":2316,"henkel":2317,"ao":2318,"coiff":2319,"##cher":2320,"##aires":2321,"activia":2322,"ply":2323,"bouche":2324,"doranger":2325,"jacques":2326,"##onge":2327,"tipiak":2328,"muesli":2329,"tur":2330,"##big":2331,"alter":2332,"agrumes":2333,"sacs":2334,"##pelette":2335,"force":2336,"##vita":2337,"paupires":2338,"##onnes":2339,"antib":2340,"bacon":2341,"##ession":2342,"thym":2343,"farine":2344,"femme":2345,"maquereaux":2346,"chic":2347,"pri":2348,"contour":2349,"##kop":2350,"crevettes":2351,"water":2352,"##ellence":2353,"corre":2354,"eth":2355,"medium":2356,"kg":2357,"cand":2358,"hypo":2359,"dis":2360,"##yn":2361,"mons":2362,"mau":2363,"saisonn":2364,"prc":2365,"liebig":2366,"dod":2367,"##gembre":2368,"##iniques":2369,"hyginiques":2370,"croustillant":2371,"dta":2372,"alc":2373,"entre":2374,"sticks":2375,"jas":2376,"##sses":2377,"apaisant":2378,"musc":2379,"##rier":2380,"therm":2381,"hypoallerg":2382,"ed":2383,"##ico":2384,"##atoire":2385,"##cy":2386,"tend":2387,"##iment":2388,"colin":2389,"apritifs":2390,"##rome":2391,"panse":2392,"find":2393,"kell":2394,"prs":2395,"inn":2396,"mono":2397,"pralin":2398,"##ose":2399,"##ke":2400,"hol":2401,"##mp":2402,"##gl":2403,"antitran":2404,"##tima":2405,"mait":2406,"grain":2407,"findus":2408,"na":2409,"##gr":2410,"free":2411,"##ora":2412,"rel":2413,"cousc":2414,"##actri":2415,"gingembre":2416,"rs":2417,"gloss":2418,"dure":2419,"couscous":2420,"kellog":2421,"##och":2422,"sudou":2423,"##ost":2424,"perle":2425,"fume":2426,"aprs":2427,"##ides":2428,"dab":2429,"sane":2430,"##ud":2431,"prin":2432,"veet":2433,"sudouest":2434,"##ties":2435,"sanex":2436,"mie":2437,"vill":2438,"##ppr":2439,"ethi":2440,"georg":2441,"##eyrie":2442,"pav":2443,"barilla":2444,"brillance":2445,"tart":2446,"genc":2447,"mayonnaise":2448,"legume":2449,"compotes":2450,"kelloggs":2451,"##ris":2452,"laitiere":2453,"labeyrie":2454,"##ichef":2455,"artisanale":2456,"##ker":2457,"##rate":2458,"##ienn":2459,"py":2460,"spaghetti":2461,"##oul":2462,"saisonnier":2463,"gi":2464,"lt":2465,"steak":2466,"cub":2467,"##ated":2468,"normales":2469,"maitre":2470,"fixation":2471,"##amia":2472,"vahine":2473,"##agen":2474,"lau":2475,"##rides":2476,"olive":2477,"atom":2478,"tropicana":2479,"##fruits":2480,"gum":2481,"tag":2482,"tort":2483,"source":2484,"##ug":2485,"essentiel":2486,"figue":2487,"rap":2488,"##nel":2489,"excellence":2490,"kids":2491,"roule":2492,"compl":2493,"maggi":2494,"tres":2495,"gourmande":2496,"willi":2497,"##for":2498,"jun":2499,"barre":2500,"william":2501,"##ona":2502,"dom":2503,"vienn":2504,"dshyd":2505,"las":2506,"##cor":2507,"axe":2508,"##olor":2509,"##tile":2510,"stated":2511,"ris":2512,"dsin":2513,"jasmin":2514,"pu":2515,"press":2516,"##iseur":2517,"antirides":2518,"##ian":2519,"offer":2520,"neu":2521,"nav":2522,"ori":2523,"##iti":2524,"glade":2525,"chats":2526,"lorig":2527,"##val":2528,"stril":2529,"dcou":2530,"hypoallergn":2531,"gam":2532,"##aces":2533,"marc":2534,"lavant":2535,"vichy":2536,"##ave":2537,"haute":2538,"gur":2539,"raff":2540,"marg":2541,"shoulders":2542,"blancs":2543,"faisselle":2544,"crt":2545,"leau":2546,"poti":2547,"georgelin":2548,"len":2549,"lapin":2550,"##orel":2551,"culottes":2552,"pie":2553,"despelette":2554,"eclat":2555,"##uts":2556,"cors":2557,"multiusages":2558,"orient":2559,"##ars":2560,"effic":2561,"escalop":2562,"##oupl":2563,"##osay":2564,"brown":2565,"lard":2566,"##ousse":2567,"antitranspirant":2568,"##ypt":2569,"assoupl":2570,"gteaux":2571,"entires":2572,"farc":2573,"palm":2574,"##net":2575,"origine":2576,"offre":2577,"veau":2578,"raisins":2579,"lun":2580,"##fect":2581,"romarin":2582,"poivr":2583,"##ations":2584,"rasoirs":2585,"profession":2586,"##aye":2587,"##veine":2588,"antic":2589,"##anes":2590,"purifiant":2591,"protecteur":2592,"adulte":2593,"bandes":2594,"##illaud":2595,"normaux":2596,"mex":2597,"##oos":2598,"adv":2599,"##odyne":2600,"sensodyne":2601,"##lend":2602,"##gel":2603,"alp":2604,"coup":2605,"##piquet":2606,"cpes":2607,"invis":2608,"nettoyante":2609,"##yptus":2610,"poisson":2611,"saupiquet":2612,"dav":2613,"##ute":2614,"##ll":2615,"tropical":2616,"froide":2617,"cup":2618,"amora":2619,"raisin":2620,"potiron":2621,"sar":2622,"offerts":2623,"##alsam":2624,"etic":2625,"##chant":2626,"cadum":2627,"lift":2628,"cuisse":2629,"ferr":2630,"marin":2631,"bled":2632,"silicone":2633,"fonc":2634,"berg":2635,"vieux":2636,"galette":2637,"cuisins":2638,"soft":2639,"##ep":2640,"labor":2641,"merc":2642,"chiens":2643,"rac":2644,"sud":2645,"croix":2646,"conserv":2647,"crmant":2648,"verveine":2649,"senteur":2650,"sing":2651,"##rm":2652,"##atif":2653,"royal":2654,"fraches":2655,"alpin":2656,"##iale":2657,"antibactri":2658,"gencives":2659,"crackers":2660,"emb":2661,"##wood":2662,"##ouille":2663,"past":2664,"atomiseur":2665,"mand":2666,"citr":2667,"clats":2668,"##hol":2669,"ferrero":2670,"grt":2671,"intens":2672,"aliment":2673,"oliv":2674,"##belle":2675,"##iller":2676,"viandes":2677,"pista":2678,"##ik":2679,"prod":2680,"danone":2681,"junior":2682,"charc":2683,"##quable":2684,"macar":2685,"bottle":2686,"##ob":2687,"##anges":2688,"##ition":2689,"##icateur":2690,"qualit":2691,"##rys":2692,"feuille":2693,"dml":2694,"##222":2695,"poivrons":2696,"dj":2697,"fle":2698,"sim":2699,"mir":2700,"gourdes":2701,"recettes":2702,"capp":2703,"amb":2704,"##fiant":2705,"##can":2706,"##igu":2707,"sensible":2708,"ssame":2709,"old":2710,"##ours":2711,"franc":2712,"box":2713,"##unch":2714,"brioch":2715,"assouplissant":2716,"balsam":2717,"compress":2718,"daucy":2719,"courgettes":2720,"##man":2721,"ethiquable":2722,"bb":2723,"wick":2724,"dessange":2725,"##vaisselle":2726,"tol":2727,"fraises":2728,"##itude":2729,"##ents":2730,"appl":2731,"gteau":2732,"energy":2733,"lavevaisselle":2734,"ball":2735,"##fine":2736,"dermo":2737,"##neau":2738,"avne":2739,"lum":2740,"rog":2741,"##mbert":2742,"assi":2743,"familial":2744,"cop":2745,"laque":2746,"pomp":2747,"dlic":2748,"skip":2749,"cote":2750,"pep":2751,"##otto":2752,"dec":2753,"vio":2754,"klor":2755,"##zz":2756,"##ella":2757,"klorane":2758,"fou":2759,"var":2760,"bourgogne":2761,"mav":2762,"viv":2763,"##esto":2764,"panach":2765,"feuil":2766,"##bour":2767,"lev":2768,"cannelle":2769,"##vital":2770,"##moi":2771,"recharges":2772,"##gue":2773,"##omille":2774,"vinaig":2775,"cabillaud":2776,"plaisir":2777,"jetables":2778,"parmenti":2779,"prserv":2780,"rig":2781,"##ings":2782,"pansements":2783,"sem":2784,"dark":2785,"subli":2786,"gurande":2787,"assort":2788,"bor":2789,"one":2790,"##omb":2791,"crist":2792,"paysan":2793,"cranberry":2794,"##rika":2795,"gants":2796,"allge":2797,"pour":2798,"dsinfect":2799,"pesto":2800,"intime":2801,"ravioli":2802,"ale":2803,"##pou":2804,"##tif":2805,"##rano":2806,"mre":2807,"##cel":2808,"##gral":2809,"chocolate":2810,"invisible":2811,"ave":2812,"bag":2813,"paprika":2814,"demic":2815,"john":2816,"mavala":2817,"##ena":2818,"tampons":2819,"sang":2820,"bretagne":2821,"petites":2822,"ushu":2823,"dtachant":2824,"nerg":2825,"xice":2826,"camomille":2827,"hypoallergnique":2828,"eric":2829,"##ivers":2830,"eucal":2831,"marine":2832,"##liat":2833,"##fra":2834,"calend":2835,"##220":2836,"##320":2837,"##120":2838,"##020":2839,"##310":2840,"##mer":2841,"##quil":2842,"noires":2843,"prservatif":2844,"##ili":2845,"##uxe":2846,"open":2847,"mes":2848,"smo":2849,"vie":2850,"##eul":2851,"desserts":2852,"pole":2853,"##apon":2854,"##tq":2855,"marron":2856,"purina":2857,"db":2858,"dg":2859,"##221":2860,"##321":2861,"##121":2862,"##021":2863,"##301":2864,"demisel":2865,"prince":2866,"##di":2867,"##gh":2868,"##fidus":2869,"dolce":2870,"royale":2871,"##ass":2872,"vinaigrette":2873,"bifidus":2874,"##ello":2875,"calibre":2876,"dia":2877,"vgt":2878,"tagliat":2879,"single":2880,"##faces":2881,"madele":2882,"perles":2883,"applicateur":2884,"came":2885,"blanches":2886,"cross":2887,"tartinables":2888,"loriginal":2889,"parmentier":2890,"roll":2891,"tim":2892,"chevre":2893,"ptillant":2894,"traite":2895,"holly":2896,"chau":2897,"exo":2898,"pains":2899,"##223":2900,"##323":2901,"##123":2902,"##023":2903,"extraits":2904,"##313":2905,"##303":2906,"matte":2907,"##tox":2908,"rduit":2909,"##eth":2910,"tah":2911,"isla":2912,"camembert":2913,"hollywood":2914,"157":2915,"257":2916,"357":2917,"457":2918,"dre":2919,"##erve":2920,"sobio":2921,"poireaux":2922,"risotto":2923,"##oign":2924,"##proof":2925,"demicrm":2926,"##cum":2927,"##ity":2928,"limon":2929,"cp":2930,"##vine":2931,"##euner":2932,"chees":2933,"corse":2934,"##ake":2935,"physi":2936,"serrano":2937,"strilis":2938,"paisse":2939,"pink":2940,"assiette":2941,"dtox":2942,"blue":2943,"plastq":2944,"botes":2945,"##uet":2946,"##ution":2947,"##gus":2948,"pointe":2949,"nar":2950,"tas":2951,"##jac":2952,"##teau":2953,"hs":2954,"figues":2955,"plein":2956,"eucalyptus":2957,"bul":2958,"rus":2959,"##zy":2960,"sense":2961,"panier":2962,"antibactrien":2963,"gomm":2964,"penne":2965,"##oires":2966,"##ontact":2967,"pompotes":2968,"pel":2969,"##ture":2970,"##inique":2971,"couenne":2972,"##breze":2973,"extrude":2974,"satin":2975,"##ler":2976,"##alie":2977,"big":2978,"mouss":2979,"personnes":2980,"##arz":2981,"dmaquillante":2982,"##uble":2983,"poubelle":2984,"##pey":2985,"normand":2986,"##usto":2987,"poler":2988,"##kopf":2989,"waterproof":2990,"##rme":2991,"##isante":2992,"##zs":2993,"brume":2994,"soupl":2995,"##timate":2996,"narta":2997,"soupline":2998,"##oute":2999,"collection":3000,"##oyau":3001,"granola":3002,"febreze":3003,"schwarz":3004,"grills":3005,"tahiti":3006,"grande":3007,"avec":3008,"##elier":3009,"##ergue":3010,"oignon":3011,"breton":3012,"cool":3013,"snack":3014,"bai":3015,"gliss":3016,"touch":3017,"##ucc":3018,"mass":3019,"##carg":3020,"schwarzkopf":3021,"intensif":3022,"feuilles":3023,"##onte":3024,"##chup":3025,"##ifi":3026,"moins":3027,"propre":3028,"crous":3029,"perfec":3030,"viennois":3031,"gusto":3032,"tru":3033,"##erne":3034,"##oles":3035,"lenor":3036,"##verg":3037,"poissons":3038,"dream":3039,"gerb":3040,"rond":3041,"##aill":3042,"demi":3043,"navire":3044,"boissons":3045,"##otherm":3046,"ly":3047,"lays":3048,"##101":3049,"longue":3050,"##bourg":3051,"##ltt":3052,"ir":3053,"##otta":3054,"cuve":3055,"charal":3056,"##dermine":3057,"argile":3058,"mamie":3059,"multifruits":3060,"ju":3061,"pants":3062,"seul":3063,"revital":3064,"ultimate":3065,"##aren":3066,"rin":3067,"##irs":3068,"##leda":3069,"lavante":3070,"##ades":3071,"##rtltt":3072,"##ok":3073,"##onges":3074,"##ricots":3075,"##uroch":3076,"##103":3077,"paprtltt":3078,"correcteur":3079,"mercuroch":3080,"##baye":3081,"##arde":3082,"craqu":3083,"sauvage":3084,"margarine":3085,"mercurochrome":3086,"magnum":3087,"davoine":3088,"as":3089,"liss":3090,"uri":3091,"ped":3092,"trousse":3093,"##peyrat":3094,"protges":3095,"types":3096,"dmlant":3097,"59":3098,"69":3099,"79":3100,"89":3101,"99":3102,"cant":3103,"149":3104,"189":3105,"249":3106,"289":3107,"349":3108,"389":3109,"449":3110,"489":3111,"gris":3112,"nova":3113,"burger":3114,"assortis":3115,"536":3116,"verm":3117,"##con":3118,"##iges":3119,"graisse":3120,"delpeyrat":3121,"soluble":3122,"papill":3123,"friand":3124,"pock":3125,"xtra":3126,"enro":3127,"crot":3128,"##phant":3129,"latelier":3130,"lardons":3131,"framboises":3132,"new":3133,"diadermine":3134,"uriage":3135,"flan":3136,"dgraissant":3137,"yog":3138,"##ouse":3139,"##art":3140,"frites":3141,"latitude":3142,"tenue":3143,"clip":3144,"grasse":3145,"##arm":3146,"augus":3147,"##ustation":3148,"58":3149,"68":3150,"78":3151,"88":3152,"98":3153,"det":3154,"gro":3155,"148":3156,"198":3157,"248":3158,"298":3159,"348":3160,"398":3161,"448":3162,"498":3163,"canne":3164,"fourr":3165,"vico":3166,"##tro":3167,"ur":3168,"ptiss":3169,"emin":3170,"twin":3171,"##ingles":3172,"##chers":3173,"chip":3174,"provost":3175,"##bonate":3176,"##ceur":3177,"##nesol":3178,"crousti":3179,"##icelles":3180,"##carbonate":3181,"aromatis":3182,"tal":3183,"##iel":3184,"##yle":3185,"##caire":3186,"##range":3187,"##263":3188,"##261":3189,"##260":3190,"##266":3191,"##267":3192,"##265":3193,"##264":3194,"##268":3195,"##269":3196,"##262":3197,"##273":3198,"##271":3199,"##270":3200,"##276":3201,"##277":3202,"##275":3203,"##274":3204,"##278":3205,"##279":3206,"##272":3207,"##253":3208,"##251":3209,"##250":3210,"##256":3211,"##257":3212,"##255":3213,"##254":3214,"##258":3215,"##259":3216,"##252":3217,"##243":3218,"##241":3219,"##240":3220,"##246":3221,"##247":3222,"##245":3223,"##244":3224,"##248":3225,"##249":3226,"##242":3227,"##283":3228,"##281":3229,"##280":3230,"##286":3231,"##287":3232,"##285":3233,"##284":3234,"##288":3235,"##289":3236,"##282":3237,"##293":3238,"##291":3239,"##290":3240,"##296":3241,"##297":3242,"##295":3243,"##294":3244,"##298":3245,"##299":3246,"##292":3247,"lim":3248,"##erguez":3249,"japon":3250,"mixtes":3251,"sublime":3252,"prservatifs":3253,"mdit":3254,"##cle":3255,"hydratation":3256,"##arl":3257,"franck":3258,"vegetales":3259,"alo":3260,"cora":3261,"tournesol":3262,"dpices":3263,"edition":3264,"secrets":3265,"cris":3266,"##ident":3267,"brise":3268,"dodu":3269,"bicarbonate":3270,"plateau":3271,"##atique":3272,"##acit":3273,"##uite":3274,"##rance":3275,"cte":3276,"##mond":3277,"##erran":3278,"##atrice":3279,"##quettes":3280,"chiff":3281,"delice":3282,"cornich":3283,"##fe":3284,"chou":3285,"moj":3286,"54":3287,"64":3288,"74":3289,"84":3290,"94":3291,"aoc":3292,"inter":3293,"bouquet":3294,"184":3295,"194":3296,"284":3297,"294":3298,"384":3299,"394":3300,"484":3301,"494":3302,"taboul":3303,"absol":3304,"merguez":3305,"##odka":3306,"##tay":3307,"cereal":3308,"pieds":3309,"borde":3310,"pod":3311,"cordon":3312,"kiw":3313,"lang":3314,"colog":3315,"daunat":3316,"enfants":3317,"olivier":3318,"timote":3319,"vodka":3320,"##rettes":3321,"escalope":3322,"bac":3323,"lutti":3324,"qui":3325,"##arma":3326,"##acre":3327,"comt":3328,"glacs":3329,"ajax":3330,"knack":3331,"pistache":3332,"##lips":3333,"balsamique":3334,"pocket":3335,"gri":3336,"##013":3337,"gnoc":3338,"dgustation":3339,"##rant":3340,"escarg":3341,"oriental":3342,"##aska":3343,"dro":3344,"lail":3345,"antim":3346,"hyal":3347,"coulis":3348,"bronz":3349,"dshydrate":3350,"div":3351,"##esti":3352,"##asis":3353,"compat":3354,"##treme":3355,"larbre":3356,"pringles":3357,"timotei":3358,"ket":3359,"##rd":3360,"unile":3361,"##essance":3362,"unilever":3363,"matire":3364,"large":3365,"cib":3366,"mmm":3367,"ore":3368,"##rain":3369,"##acola":3370,"albert":3371,"cocacola":3372,"fourne":3373,"lactel":3374,"mandarine":3375,"surpr":3376,"gant":3377,"def":3378,"mojito":3379,"##vie":3380,"sale":3381,"pouce":3382,"tap":3383,"ketchup":3384,"main":3385,"shine":3386,"augustin":3387,"dcor":3388,"ven":3389,"lucien":3390,"##derma":3391,"cpac":3392,"bay":3393,"minceur":3394,"##inson":3395,"hap":3396,"oasis":3397,"rad":3398,"##lia":3399,"crud":3400,"essentielles":3401,"indiv":3402,"fromag":3403,"##tell":3404,"##seur":3405,"dn":3406,"ombre":3407,"prt":3408,"aff":3409,"jeu":3410,"specialites":3411,"reflets":3412,"extraf":3413,"port":3414,"style":3415,"materne":3416,"##aj":3417,"suisse":3418,"pompe":3419,"parfums":3420,"nugg":3421,"syoss":3422,"##vet":3423,"baies":3424,"mditerran":3425,"corail":3426,"ipa":3427,"nol":3428,"##uses":3429,"##373":3430,"##371":3431,"##370":3432,"##376":3433,"##377":3434,"##375":3435,"##374":3436,"##378":3437,"##379":3438,"##372":3439,"##383":3440,"##381":3441,"##380":3442,"##386":3443,"##387":3444,"##385":3445,"##384":3446,"##388":3447,"##389":3448,"##382":3449,"##393":3450,"##391":3451,"##390":3452,"##396":3453,"##397":3454,"##395":3455,"##394":3456,"##398":3457,"##399":3458,"##392":3459,"##aia":3460,"hygine":3461,"palme":3462,"55":3463,"65":3464,"75":3465,"85":3466,"95":3467,"eas":3468,"vrit":3469,"##333":3470,"##331":3471,"##330":3472,"##336":3473,"##337":3474,"##335":3475,"##334":3476,"##338":3477,"##339":3478,"##332":3479,"##113":3480,"##111":3481,"##110":3482,"##116":3483,"##117":3484,"##115":3485,"##114":3486,"##118":3487,"##119":3488,"##112":3489,"##003":3490,"##001":3491,"##000":3492,"##006":3493,"##007":3494,"##005":3495,"##004":3496,"##008":3497,"##009":3498,"##002":3499,"##353":3500,"##351":3501,"##350":3502,"##356":3503,"##357":3504,"##355":3505,"##354":3506,"##358":3507,"##359":3508,"##352":3509,"##343":3510,"##341":3511,"##340":3512,"##346":3513,"##347":3514,"##345":3515,"##344":3516,"##348":3517,"##349":3518,"##342":3519,"##163":3520,"##161":3521,"##160":3522,"##166":3523,"##167":3524,"##165":3525,"##164":3526,"##168":3527,"##169":3528,"##162":3529,"##173":3530,"##171":3531,"##170":3532,"##176":3533,"##177":3534,"##175":3535,"##174":3536,"##178":3537,"##179":3538,"##172":3539,"##153":3540,"##151":3541,"##150":3542,"##156":3543,"##157":3544,"##155":3545,"##154":3546,"##158":3547,"##159":3548,"##152":3549,"##143":3550,"##141":3551,"##140":3552,"##146":3553,"##147":3554,"##145":3555,"##144":3556,"##148":3557,"##149":3558,"##142":3559,"##183":3560,"##181":3561,"##180":3562,"##186":3563,"##187":3564,"##185":3565,"##184":3566,"##188":3567,"##189":3568,"##182":3569,"##193":3570,"##191":3571,"##190":3572,"##196":3573,"##197":3574,"##195":3575,"##194":3576,"##198":3577,"##199":3578,"##192":3579,"##063":3580,"##061":3581,"##060":3582,"##066":3583,"##067":3584,"##065":3585,"##064":3586,"##068":3587,"##069":3588,"##062":3589,"##073":3590,"##071":3591,"##070":3592,"##076":3593,"##077":3594,"##075":3595,"##074":3596,"##078":3597,"##079":3598,"##072":3599,"##053":3600,"##051":3601,"##050":3602,"##056":3603,"##057":3604,"##055":3605,"##054":3606,"##058":3607,"##059":3608,"##052":3609,"##043":3610,"##041":3611,"##040":3612,"##046":3613,"##047":3614,"##045":3615,"##044":3616,"##048":3617,"##049":3618,"##042":3619,"##083":3620,"##081":3621,"##080":3622,"##086":3623,"##087":3624,"##085":3625,"##084":3626,"##088":3627,"##089":3628,"##082":3629,"##093":3630,"##091":3631,"##090":3632,"##096":3633,"##097":3634,"##095":3635,"##094":3636,"##098":3637,"##099":3638,"##092":3639,"##363":3640,"##361":3641,"##360":3642,"##366":3643,"##367":3644,"##365":3645,"##364":3646,"##368":3647,"##369":3648,"##362":3649,"145":3650,"185":3651,"195":3652,"245":3653,"285":3654,"295":3655,"345":3656,"385":3657,"395":3658,"445":3659,"485":3660,"495":3661,"##isseire":3662,"raser":3663,"limonade":3664,"##677":3665,"##655":3666,"##644":3667,"##688":3668,"##699":3669,"##lon":3670,"##gon":3671,"carton":3672,"teisseire":3673,"lger":3674,"contr":3675,"##nesse":3676,"##force":3677,"gammes":3678,"individ":3679,"cnes":3680,"line":3681,"grey":3682,"montagne":3683,"##oste":3684,"ultima":3685,"basmat":3686,"rapide":3687,"djeuner":3688,"club":3689,"pralines":3690,"tortilla":3691,"##uel":3692,"tena":3693,"traditionnelle":3694,"dash":3695,"##oulette":3696,"##ilatoire":3697,"plie":3698,"matre":3699,"##isto":3700,"portion":3701,"rit":3702,"##land":3703,"##gat":3704,"##reet":3705,"liegeois":3706,"cornichons":3707,"basmati":3708,"phyt":3709,"gnocchi":3710,"surprise":3711,"nuggets":3712,"myrtilles":3713,"tuiles":3714,"##xp":3715,"mirab":3716,"superieur":3717,"charbon":3718,"##igree":3719,"capill":3720,"conservateur":3721,"madeleines":3722,"swe":3723,"prix":3724,"night":3725,"sucettes":3726,"enrob":3727,"fant":3728,"ox":3729,"rat":3730,"bioderma":3731,"exf":3732,"mirac":3733,"apaisante":3734,"pedigree":3735,"##cit":3736,"allot":3737,"notre":3738,"msc":3739,"##wen":3740,"cuire":3741,"dsinfectant":3742,"caramb":3743,"ligeois":3744,"##cess":3745,"rouleaux":3746,"but":3747,"##oost":3748,"ampou":3749,"gratin":3750,"friandises":3751,"pods":3752,"ou":3753,"##ires":3754,"##ats":3755,"nude":3756,"##imi":3757,"pinards":3758,"dalaska":3759,"wilk":3760,"##illeul":3761,"italien":3762,"gommage":3763,"massage":3764,"pant":3765,"nourrissante":3766,"cacahutes":3767,"coiffant":3768,"efficacit":3769,"er":3770,"forti":3771,"##rosol":3772,"revlon":3773,"lub":3774,"##uloos":3775,"alice":3776,"grilles":3777,"vermicelles":3778,"##avon":3779,"basque":3780,"torchon":3781,"ushuaia":3782,"##sm":3783,"vache":3784,"nana":3785,"chocolates":3786,"village":3787,"wilkinson":3788,"##ks":3789,"##inaire":3790,"dh":3791,"##lisse":3792,"rians":3793,"hyalur":3794,"jb":3795,"##yd":3796,"auberg":3797,"biscottes":3798,"##ubar":3799,"##ggies":3800,"smooth":3801,"senseo":3802,"carambar":3803,"boost":3804,"rai":3805,"mars":3806,"plan":3807,"infaill":3808,"beauty":3809,"ciboulette":3810,"##jo":3811,"alg":3812,"finish":3813,"##ient":3814,"flam":3815,"sucette":3816,"touche":3817,"textile":3818,"flex":3819,"happy":3820,"arc":3821,"##ctu":3822,"andou":3823,"lacte":3824,"##ov":3825,"##chs":3826,"instantane":3827,"capillaire":3828,"fps":3829,"##erc":3830,"star":3831,"##lix":3832,"hydro":3833,"alternat":3834,"detox":3835,"belin":3836,"ol":3837,"##onta":3838,"chicco":3839,"##oignon":3840,"##presso":3841,"colorant":3842,"vra":3843,"pere":3844,"phyto":3845,"kiwi":3846,"57":3847,"67":3848,"77":3849,"87":3850,"97":3851,"bamb":3852,"##ng":3853,"147":3854,"187":3855,"197":3856,"247":3857,"287":3858,"297":3859,"347":3860,"387":3861,"397":3862,"447":3863,"487":3864,"497":3865,"els":3866,"multic":3867,"fraiche":3868,"serviette":3869,"weleda":3870,"plantes":3871,"piqu":3872,"nos":3873,"##cul":3874,"cattier":3875,"arosol":3876,"pct":3877,"##ty":3878,"stop":3879,"##ados":3880,"capsule":3881,"frie":3882,"bourbon":3883,"plats":3884,"drages":3885,"##ifiante":3886,"oil":3887,"##tol":3888,"beer":3889,"vitamine":3890,"chipolat":3891,"dnoyau":3892,"butter":3893,"##simo":3894,"soy":3895,"delacre":3896,"lager":3897,"stand":3898,"adult":3899,"dpilatoire":3900,"##uminium":3901,"##jon":3902,"##atoires":3903,"cher":3904,"selection":3905,"vitry":3906,"epices":3907,"golden":3908,"ricotta":3909,"ci":3910,"##adamia":3911,"cereales":3912,"glen":3913,"lu":3914,"##ills":3915,"alb":3916,"##ado":3917,"supers":3918,"normandie":3919,"escargots":3920,"sant":3921,"lady":3922,"##uccino":3923,"aigu":3924,"body":3925,"tilleul":3926,"sals":3927,"acc":3928,"relax":3929,"tassimo":3930,"net":3931,"##lier":3932,"##rielle":3933,"velours":3934,"sweet":3935,"tre":3936,"##ns":3937,"##rach":3938,"huggies":3939,"brownie":3940,"intensit":3941,"kle":3942,"ret":3943,"##atte":3944,"##etout":3945,"##tid":3946,"poules":3947,"thermale":3948,"##ubarbe":3949,"infaillible":3950,"you":3951,"##posay":3952,"##onz":3953,"##isseur":3954,"rocheposay":3955,"tendres":3956,"##xl":3957,"palets":3958,"mauges":3959,"##ries":3960,"##igo":3961,"bouches":3962,"casse":3963,"menes":3964,"coquillettes":3965,"oralb":3966,"cacahute":3967,"tagliatelles":3968,"gui":3969,"raf":3970,"##ram":3971,"trio":3972,"orch":3973,"vahin":3974,"belvita":3975,"crotons":3976,"##ilis":3977,"vania":3978,"trsor":3979,"aquaf":3980,"zero":3981,"##gena":3982,"rgn":3983,"macadamia":3984,"##na":3985,"##tich":3986,"##uietout":3987,"elas":3988,"demel":3989,"liner":3990,"bah":3991,"soc":3992,"cuite":3993,"president":3994,"bande":3995,"hair":3996,"rparation":3997,"##iano":3998,"##aure":3999,"##omique":4000,"##illants":4001,"matin":4002,"elle":4003,"ampoules":4004,"##ley":4005,"##ense":4006,"sponte":4007,"surimi":4008,"magic":4009,"avoine":4010,"spontex":4011,"sable":4012,"compact":4013,"imp":4014,"##chette":4015,"##amine":4016,"louis":4017,"citrus":4018,"biere":4019,"##isses":4020,"parfait":4021,"##620":4022,"roses":4023,"tonique":4024,"##agas":4025,"ptillante":4026,"sensational":4027,"billes":4028,"##rons":4029,"lavage":4030,"essuietout":4031,"suprieure":4032,"mdd":4033,"##ci":4034,"##ven":4035,"choux":4036,"fus":4037,"##cils":4038,"##ibisc":4039,"##621":4040,"##lain":4041,"linge":4042,"ratat":4043,"salle":4044,"menthol":4045,"harrys":4046,"twinings":4047,"soup":4048,"mousseux":4049,"briochin":4050,"##ki":4051,"minu":4052,"madagas":4053,"cappuccino":4054,"##quila":4055,"frieda":4056,"##caf":4057,"couleurs":4058,"offerte":4059,"farcies":4060,"lungo":4061,"##ibiscus":4062,"##bles":4063,"##olia":4064,"plant":4065,"abricots":4066,"hyaluron":4067,"aquafresh":4068,"cell":4069,"##dry":4070,"##ara":4071,"pros":4072,"pla":4073,"lem":4074,"##ada":4075,"essity":4076,"henri":4077,"##ho":4078,"lap":4079,"flu":4080,"est":4081,"tis":4082,"##agnes":4083,"##623":4084,"poires":4085,"cuisines":4086,"##jacques":4087,"##inz":4088,"tem":4089,"martinique":4090,"ratatouille":4091,"tte":4092,"##ny":4093,"rhubarbe":4094,"rgions":4095,"gaufres":4096,"fard":4097,"##dt":4098,"##enppr":4099,"##abio":4100,"##rsenppr":4101,"tranch":4102,"dijon":4103,"elephant":4104,"levure":4105,"raid":4106,"##ca":4107,"##rap":4108,"dcaf":4109,"organ":4110,"mouchrsenppr":4111,"doree":4112,"laboratoires":4113,"##rip":4114,"##icaine":4115,"feuillets":4116,"asi":4117,"##chal":4118,"##icy":4119,"madagascar":4120,"##ilait":4121,"parmes":4122,"bldichef":4123,"berger":4124,"lp":4125,"farme":4126,"bols":4127,"##contact":4128,"biotherm":4129,"cava":4130,"maille":4131,"she":4132,"corine":4133,"litres":4134,"##perges":4135,"nescaf":4136,"control":4137,"fur":4138,"##yot":4139,"##erl":4140,"##antage":4141,"patiss":4142,"cologique":4143,"elsve":4144,"##vin":4145,"ptite":4146,"onctu":4147,"aoste":4148,"dac":4149,"lune":4150,"##bur":4151,"paquets":4152,"melvita":4153,"williams":4154,"advantage":4155,"fournee":4156,"cic":4157,"tha":4158,"natura":4159,"easy":4160,"superstay":4161,"##ytol":4162,"extreme":4163,"lex":4164,"rana":4165,"tiss":4166,"##fleur":4167,"heinz":4168,"napp":4169,"alternatif":4170,"rub":4171,"fortifiant":4172,"##ild":4173,"bidon":4174,"##mont":4175,"lindor":4176,"dlices":4177,"cuisses":4178,"tortell":4179,"sublim":4180,"tartine":4181,"raffin":4182,"##mecum":4183,"babydry":4184,"expresso":4185,"now":4186,"vritable":4187,"##esse":4188,"comple":4189,"##ademecum":4190,"grec":4191,"hachs":4192,"gaufrettes":4193,"souffls":4194,"lubri":4195,"gas":4196,"svr":4197,"##otid":4198,"##nen":4199,"##erin":4200,"##rence":4201,"parts":4202,"suprme":4203,"##grain":4204,"nougat":4205,"discreet":4206,"papillotes":4207,"individu":4208,"elix":4209,"alpro":4210,"entire":4211,"eponges":4212,"domaine":4213,"fusion":4214,"vademecum":4215,"phyts":4216,"protgeslips":4217,"crudits":4218,"minutes":4219,"##izh":4220,"##igny":4221,"##anove":4222,"bledichef":4223,"gall":4224,"nore":4225,"##halal":4226,"brune":4227,"sous":4228,"solide":4229,"actif":4230,"ceris":4231,"monster":4232,"miracle":4233,"parmesan":4234,"bec":4235,"##ocat":4236,"inse":4237,"crmeux":4238,"bretz":4239,"porto":4240,"mms":4241,"rp":4242,"extrait":4243,"protge":4244,"neutro":4245,"bens":4246,"##ink":4247,"douces":4248,"##ecos":4249,"##ulcor":4250,"minis":4251,"froment":4252,"##pack":4253,"##iste":4254,"clment":4255,"uncle":4256,"quotid":4257,"novel":4258,"access":4259,"demisec":4260,"##dic":4261,"##eri":4262,"palette":4263,"##entique":4264,"spciale":4265,"resp":4266,"##limate":4267,"neutrogena":4268,"gforce":4269,"mc":4270,"##climate":4271,"##ular":4272,"bridou":4273,"whiskas":4274,"brossettes":4275,"brossard":4276,"pruneaux":4277,"crossclimate":4278,"buff":4279,"##ddar":4280,"calendrier":4281,"gast":4282,"epin":4283,"coquilles":4284,"innoc":4285,"durex":4286,"chipolatas":4287,"fib":4288,"nuxe":4289,"##ula":4290,"rosette":4291,"##csn":4292,"##vergne":4293,"##wenger":4294,"innocent":4295,"mere":4296,"pit":4297,"##nac":4298,"ann":4299,"poule":4300,"coll":4301,"##rong":4302,"quen":4303,"grenad":4304,"fortwenger":4305,"sanytol":4306,"noreva":4307,"crun":4308,"saf":4309,"grandm":4310,"essentielle":4311,"florette":4312,"sl":4313,"##ji":4314,"##rage":4315,"##ift":4316,"energie":4317,"novelties":4318,"marrons":4319,"cral":4320,"compt":4321,"cheval":4322,"mennen":4323,"raclette":4324,"emincs":4325,"lond":4326,"chili":4327,"croc":4328,"nespresso":4329,"##mar":4330,"##onino":4331,"##quito":4332,"##mex":4333,"##izz":4334,"justin":4335,"harmon":4336,"nuance":4337,"benecos":4338,"lumire":4339,"vgtales":4340,"earl":4341,"omo":4342,"##tions":4343,"maroc":4344,"##oph":4345,"barbe":4346,"artisanal":4347,"rinage":4348,"fel":4349,"lal":4350,"vire":4351,"##veil":4352,"verger":4353,"##ness":4354,"danonino":4355,"simpl":4356,"demelant":4357,"buit":4358,"ile":4359,"##raine":4360,"cheddar":4361,"jambes":4362,"cerisier":4363,"ai":4364,"bet":4365,"lion":4366,"##ori":4367,"multivit":4368,"cerises":4369,"##doux":4370,"monsavon":4371,"accord":4372,"dyn":4373,"##ital":4374,"fermet":4375,"##rasin":4376,"iv":4377,"##gar":4378,"frisk":4379,"vitabio":4380,"morue":4381,"btonnet":4382,"bern":4383,"##pprd":4384,"alpine":4385,"rain":4386,"##esc":4387,"##ions":4388,"panais":4389,"##phin":4390,"resist":4391,"dcafin":4392,"london":4393,"mos":4394,"pim":4395,"##nc":4396,"##gu":4397,"aluminium":4398,"##aisons":4399,"cocon":4400,"pinceau":4401,"##ed":4402,"##her":4403,"bouch":4404,"cochon":4405,"esstt":4406,"aqua":4407,"charcut":4408,"##pprdcsn":4409,"essttpprdcsn":4410,"og":4411,"ster":4412,"cuites":4413,"sarrasin":4414,"buitoni":4415,"##rem":4416,"reine":4417,"table":4418,"patate":4419,"##clerc":4420,"##flore":4421,"grenadine":4422,"dt":4423,"eug":4424,"inte":4425,"##ivier":4426,"taillefine":4427,"boulang":4428,"candia":4429,"##naud":4430,"##ernes":4431,"natessance":4432,"acs":4433,"chtaigne":4434,"pac":4435,"charen":4436,"##aml":4437,"##trant":4438,"rparatrice":4439,"smar":4440,"interdent":4441,"##nais":4442,"carr":4443,"paso":4444,"##vineau":4445,"tortellini":4446,"fuet":4447,"##rines":4448,"madrange":4449,"cassegrain":4450,"##az":4451,"##oup":4452,"caj":4453,"bora":4454,"devineau":4455,"##ava":4456,"abms":4457,"hauts":4458,"cristal":4459,"rafrach":4460,"tle":4461,"##ieuse":4462,"lots":4463,"offertes":4464,"tleclerc":4465,"ran":4466,"##uine":4467,"##etic":4468,"cain":4469,"colomb":4470,"boud":4471,"grtt":4472,"vitalit":4473,"eucerin":4474,"nergisante":4475,"ouest":4476,"friskies":4477,"##cha":4478,"##choc":4479,"##ney":4480,"clinique":4481,"citronn":4482,"franais":4483,"concentre":4484,"small":4485,"cog":4486,"fac":4487,"chante":4488,"complte":4489,"ru":4490,"grandes":4491,"df":4492,"##ban":4493,"##vi":4494,"protectrice":4495,"perfection":4496,"ctes":4497,"chab":4498,"carrs":4499,"leves":4500,"biscuiterie":4501,"##xpert":4502,"pc":4503,"sys":4504,"##oure":4505,"styl":4506,"##erma":4507,"##inale":4508,"vital":4509,"vegan":4510,"haagen":4511,"rollon":4512,"orchide":4513,"dli":4514,"changes":4515,"beau":4516,"##terer":4517,"harp":4518,"agric":4519,"##enex":4520,"rsist":4521,"kleenex":4522,"furterer":4523,"samia":4524,"ancel":4525,"organic":4526,"loire":4527,"##olli":4528,"payot":4529,"antical":4530,"magret":4531,"denf":4532,"cantal":4533,"go":4534,"moi":4535,"##ita":4536,"##role":4537,"biol":4538,"##ctions":4539,"coupe":4540,"gratuits":4541,"moyens":4542,"jack":4543,"##lt":4544,"##illotte":4545,"connet":4546,"bouc":4547,"antiage":4548,"crabe":4549,"roque":4550,"mirabelle":4551,"lpm":4552,"smarties":4553,"cognac":4554,"122":4555,"222":4556,"322":4557,"422":4558,"522":4559,"##last":4560,"paille":4561,"mamet":4562,"ferment":4563,"absorb":4564,"cemoi":4565,"bronze":4566,"connetable":4567,"##nut":4568,"##grip":4569,"play":4570,"##acho":4571,"entrem":4572,"harmonie":4573,"##ombre":4574,"anis":4575,"matgr":4576,"crues":4577,"tartines":4578,"56":4579,"66":4580,"76":4581,"86":4582,"96":4583,"lisse":4584,"zp":4585,"##ome":4586,"##ata":4587,"##olive":4588,"spf":4589,"146":4590,"186":4591,"196":4592,"246":4593,"286":4594,"296":4595,"346":4596,"386":4597,"396":4598,"446":4599,"486":4600,"496":4601,"156":4602,"256":4603,"356":4604,"456":4605,"176":4606,"276":4607,"376":4608,"476":4609,"hahn":4610,"charcuterie":4611,"mdium":4612,"xxl":4613,"tomme":4614,"foresti":4615,"anticalcaire":4616,"ke":4617,"om":4618,"##gour":4619,"floc":4620,"pastilles":4621,"lextra":4622,"mom":4623,"mtal":4624,"##alis":4625,"blini":4626,"multis":4627,"belge":4628,"vegetal":4629,"rserve":4630,"pyr":4631,"crunchy":4632,"tion":4633,"##oline":4634,"##elas":4635,"##tige":4636,"confis":4637,"puret":4638,"##orga":4639,"alsace":4640,"ltx":4641,"exfol":4642,"comptoir":4643,"tionnelle":4644,"132":4645,"112":4646,"102":4647,"162":4648,"232":4649,"212":4650,"202":4651,"262":4652,"332":4653,"312":4654,"302":4655,"362":4656,"432":4657,"412":4658,"402":4659,"462":4660,"532":4661,"512":4662,"502":4663,"62":4664,"72":4665,"82":4666,"92":4667,"ide":4668,"##fec":4669,"##olin":4670,"life":4671,"142":4672,"182":4673,"192":4674,"242":4675,"282":4676,"292":4677,"342":4678,"382":4679,"392":4680,"442":4681,"482":4682,"492":4683,"##peur":4684,"152":4685,"252":4686,"352":4687,"452":4688,"172":4689,"272":4690,"372":4691,"472":4692,"formule":4693,"natures":4694,"harpic":4695,"nit":4696,"##omas":4697,"grasses":4698,"##iver":4699,"croustillantes":4700,"grecque":4701,"cils":4702,"etre":4703,"sod":4704,"trad":4705,"gallia":4706,"dnoyautes":4707,"roquefort":4708,"##pgum":4709,"##ision":4710,"traditionnel":4711,"traitement":4712,"truffe":4713,"integral":4714,"pcpgum":4715,"nort":4716,"##inger":4717,"frit":4718,"dentaire":4719,"eponge":4720,"saisons":4721,"muscat":4722,"better":4723,"jum":4724,"pates":4725,"rides":4726,"monique":4727,"bleue":4728,"bougies":4729,"anticernes":4730,"macaroni":4731,"fusilli":4732,"ranou":4733,"##del":4734,"##urt":4735,"assais":4736,"fruitier":4737,"tors":4738,"napps":4739,"gerble":4740,"multisur":4741,"exfoliant":4742,"bn":4743,"pches":4744,"##eline":4745,"elmex":4746,"moussant":4747,"hot":4748,"##era":4749,"chaud":4750,"leffe":4751,"deau":4752,"monde":4753,"reghalal":4754,"roger":4755,"coconut":4756,"das":4757,"##cissant":4758,"##ouges":4759,"##chettes":4760,"noirs":4761,"rocher":4762,"##aleine":4763,"diam":4764,"dcolor":4765,"fils":4766,"ssuc":4767,"aubergines":4768,"cerv":4769,"dur":4770,"nord":4771,"##itt":4772,"strong":4773,"ptales":4774,"rglisse":4775,"break":4776,"limite":4777,"mous":4778,"ducray":4779,"sourcils":4780,"piv":4781,"rillette":4782,"##ime":4783,"##eric":4784,"##ark":4785,"##acia":4786,"griller":4787,"cubes":4788,"mexicaine":4789,"japonais":4790,"tuc":4791,"gastron":4792,"auth":4793,"tequila":4794,"morilles":4795,"croquants":4796,"dgraiss":4797,"violette":4798,"quotidien":4799,"ailettes":4800,"biolane":4801,"bsm":4802,"dai":4803,"##ova":4804,"##tine":4805,"##enuts":4806,"##entre":4807,"##iaque":4808,"brasse":4809,"croustillants":4810,"jaunes":4811,"alsa":4812,"individuels":4813,"sil":4814,"##ky":4815,"ptits":4816,"professional":4817,"feuillete":4818,"varits":4819,"multivitam":4820,"rist":4821,"##rite":4822,"lavent":4823,"benenuts":4824,"bambou":4825,"##ling":4826,"cration":4827,"##quee":4828,"paic":4829,"##663":4830,"##661":4831,"##660":4832,"##666":4833,"##667":4834,"##665":4835,"##664":4836,"##668":4837,"##669":4838,"##662":4839,"desper":4840,"##673":4841,"##671":4842,"##670":4843,"##676":4844,"##675":4845,"##674":4846,"##678":4847,"##679":4848,"##672":4849,"##653":4850,"##651":4851,"##650":4852,"##656":4853,"##657":4854,"##654":4855,"##658":4856,"##659":4857,"##652":4858,"##643":4859,"##641":4860,"##640":4861,"##646":4862,"##647":4863,"##645":4864,"##648":4865,"##649":4866,"##642":4867,"##683":4868,"##681":4869,"##680":4870,"##686":4871,"##687":4872,"##685":4873,"##684":4874,"##689":4875,"##682":4876,"##693":4877,"##691":4878,"##690":4879,"##696":4880,"##697":4881,"##695":4882,"##694":4883,"##698":4884,"##692":4885,"lemon":4886,"armat":4887,"intgral":4888,"asperges":4889,"extrafins":4890,"patisserie":4891,"simply":4892,"desperados":4893,"posay":4894,"##wh":4895,"lime":4896,"aderma":4897,"quat":4898,"ok":4899,"pag":4900,"chata":4901,"freedent":4902,"##ghour":4903,"ill":4904,"ultras":4905,"infusions":4906,"cheese":4907,"##yst":4908,"rex":4909,"prun":4910,"saintjacques":4911,"##oxa":4912,"schwep":4913,"disques":4914,"schweppes":4915,"dil":4916,"jura":4917,"##port":4918,"stra":4919,"stras":4920,"malo":4921,"boulgour":4922,"riches":4923,"innoxa":4924,"steaks":4925,"dag":4926,"dition":4927,"hibiscus":4928,"boho":4929,"canette":4930,"abbaye":4931,"##hydrat":4932,"vitamines":4933,"produits":4934,"rainett":4935,"ocan":4936,"wc":4937,"##fal":4938,"lesieur":4939,"##andre":4940,"##entiel":4941,"eyelin":4942,"cookie":4943,"dabricot":4944,"oreo":4945,"fluor":4946,"multisurfaces":4947,"rexona":4948,"##sn":4949,"poit":4950,"vapeur":4951,"mixte":4952,"##lent":4953,"##perfec":4954,"filorga":4955,"prestige":4956,"bayonne":4957,"rcol":4958,"##sin":4959,"##vic":4960,"##zi":4961,"surfaces":4962,"##verte":4963,"eyeliner":4964,"oc":4965,"squee":4966,"##iels":4967,"##lee":4968,"infus":4969,"fermiers":4970,"##tella":4971,"tresse":4972,"advance":4973,"doc":4974,"##pf":4975,"minute":4976,"antid":4977,"basique":4978,"velvet":4979,"##fruit":4980,"dbb":4981,"cherry":4982,"lissant":4983,"##van":4984,"##igh":4985,"poulain":4986,"legumes":4987,"boulghour":4988,"quenelles":4989,"##oot":4990,"##mps":4991,"##roir":4992,"mapa":4993,"remond":4994,"extraord":4995,"##berries":4996,"tresor":4997,"north":4998,"nac":4999,"##aves":5000,"##illet":5001,"apro":5002,"##idas":5003,"terrain":5004,"eloi":5005,"esti":5006,"dazs":5007,"ssucres":5008,"munch":5009,"blush":5010,"actimel":5011,"herbal":5012,"patel":5013,"persill":5014,"lasagnes":5015,"andouillette":5016,"extraordinaire":5017,"##arden":5018,"volvic":5019,"solution":5020,"fondue":5021,"##udio":5022,"compltes":5023,"carolin":5024,"renova":5025,"revillon":5026,"naturelle":5027,"##urages":5028,"buffet":5029,"lan":5030,"##bel":5031,"corp":5032,"essence":5033,"rgul":5034,"epice":5035,"breizh":5036,"coupelles":5037,"violet":5038,"planet":5039,"ral":5040,"##mier":5041,"##anza":5042,"chal":5043,"lea":5044,"##aker":5045,"croquant":5046,"concombre":5047,"curly":5048,"##active":5049,"hom":5050,"##etker":5051,"##ambly":5052,"thomas":5053,"brin":5054,"##ibles":5055,"##ignes":5056,"filtre":5057,"joker":5058,"dail":5059,"laboratoire":5060,"ptissier":5061,"cervelas":5062,"kambly":5063,"tan":5064,"##esar":5065,"##reme":5066,"count":5067,"pturages":5068,"gourmandes":5069,"vegg":5070,"dalun":5071,"dmaquillantes":5072,"martinet":5073,"palmolive":5074,"affin":5075,"gav":5076,"soignon":5077,"##lu":5078,"##inaires":5079,"##enc":5080,"##enade":5081,"apta":5082,"tampax":5083,"##nic":5084,"##bor":5085,"##ase":5086,"flor":5087,"adidas":5088,"dcorti":5089,"ides":5090,"jam":5091,"oce":5092,"zen":5093,"##ature":5094,"frag":5095,"##ulp":5096,"alle":5097,"##773":5098,"##771":5099,"##770":5100,"##776":5101,"##777":5102,"##775":5103,"##774":5104,"##778":5105,"##779":5106,"##772":5107,"##553":5108,"##551":5109,"##550":5110,"##556":5111,"##557":5112,"##555":5113,"##554":5114,"##558":5115,"##559":5116,"##552":5117,"##443":5118,"##441":5119,"##440":5120,"##446":5121,"##447":5122,"##445":5123,"##444":5124,"##448":5125,"##449":5126,"##442":5127,"##883":5128,"##881":5129,"##880":5130,"##886":5131,"##887":5132,"##885":5133,"##884":5134,"##888":5135,"##889":5136,"##882":5137,"##993":5138,"##991":5139,"##990":5140,"##996":5141,"##997":5142,"##995":5143,"##994":5144,"##998":5145,"##999":5146,"##992":5147,"mincs":5148,"cori":5149,"fondu":5150,"labell":5151,"gratt":5152,"insecti":5153,"##white":5154,"##itut":5155,"peigne":5156,"trans":5157,"sauvages":5158,"antimous":5159,"bretzels":5160,"nic":5161,"barquettes":5162,"essentiels":5163,"strasbourg":5164,"##elic":5165,"chin":5166,"petrole":5167,"amand":5168,"talent":5169,"melon":5170,"toas":5171,"tissu":5172,"##753":5173,"##751":5174,"##750":5175,"##756":5176,"##757":5177,"##754":5178,"##758":5179,"##759":5180,"##752":5181,"##743":5182,"##741":5183,"##740":5184,"##746":5185,"##747":5186,"##745":5187,"##748":5188,"##749":5189,"##742":5190,"##783":5191,"##781":5192,"##780":5193,"##786":5194,"##787":5195,"##785":5196,"##784":5197,"##789":5198,"##782":5199,"##793":5200,"##791":5201,"##790":5202,"##796":5203,"##797":5204,"##795":5205,"##794":5206,"##798":5207,"##792":5208,"guigo":5209,"catal":5210,"turanza":5211,"omga":5212,"guigoz":5213,"##dam":5214,"##illage":5215,"caraml":5216,"flac":5217,"peel":5218,"##oeff":5219,"nesqu":5220,"syste":5221,"country":5222,"bres":5223,"##itos":5224,"biber":5225,"franaise":5226,"daniels":5227,"dlisse":5228,"aprsshampoing":5229,"cavaills":5230,"dum":5231,"##orig":5232,"##ophy":5233,"croq":5234,"volum":5235,"ecol":5236,"calc":5237,"courgette":5238,"dodie":5239,"aiguillettes":5240,"ache":5241,"bton":5242,"##rales":5243,"##oile":5244,"design":5245,"##akes":5246,"alimentaire":5247,"traiteur":5248,"achete":5249,"day":5250,"##uve":5251,"##pil":5252,"peche":5253,"prsi":5254,"effet":5255,"tartelettes":5256,"florale":5257,"balai":5258,"##orelle":5259,"flocons":5260,"pages":5261,"ponge":5262,"##du":5263,"##gers":5264,"##raire":5265,"auss":5266,"##pharm":5267,"tapenade":5268,"nesquik":5269,"brs":5270,"ev":5271,"equ":5272,"jou":5273,"lier":5274,"rc":5275,"wan":5276,"##asse":5277,"suzi":5278,"app":5279,"drag":5280,"entremont":5281,"vende":5282,"dge":5283,"poiv":5284,"coquelic":5285,"crevette":5286,"rigate":5287,"smoothie":5288,"prsident":5289,"jer":5290,"vigne":5291,"naturels":5292,"##ull":5293,"enc":5294,"##allow":5295,"tolrance":5296,"bagu":5297,"knacki":5298,"lierac":5299,"nid":5300,"rois":5301,"tro":5302,"bouillotte":5303,"potager":5304,"coque":5305,"eyes":5306,"lextrait":5307,"##perfections":5308,"coriandre":5309,"dtar":5310,"gir":5311,"##vert":5312,"##olis":5313,"bonbon":5314,"disney":5315,"veggie":5316,"brsil":5317,"doy":5318,"pisto":5319,"##iance":5320,"alph":5321,"baratte":5322,"confits":5323,"terrines":5324,"##ensit":5325,"clear":5326,"bourgu":5327,"##ulcorant":5328,"colombie":5329,"boucles":5330,"mill":5331,"##ith":5332,"##auts":5333,"stoeff":5334,"poul":5335,"drink":5336,"epinards":5337,"stoeffler":5338,"brand":5339,"##atig":5340,"frach":5341,"saum":5342,"liens":5343,"##ifr":5344,"terres":5345,"bud":5346,"bras":5347,"juv":5348,"esthe":5349,"sheba":5350,"flacons":5351,"high":5352,"nuits":5353,"tous":5354,"##oleil":5355,"##rou":5356,"chair":5357,"autom":5358,"rebl":5359,"arm":5360,"##tica":5361,"serp":5362,"foss":5363,"alpes":5364,"##osa":5365,"fruite":5366,"cosmetic":5367,"royco":5368,"antitra":5369,"institut":5370,"microf":5371,"bronzage":5372,"compatible":5373,"##aureau":5374,"biovie":5375,"##lip":5376,"nettoyantes":5377,"agneau":5378,"guer":5379,"twist":5380,"dcouverte":5381,"##mann":5382,"absolu":5383,"rgnrant":5384,"##tichauts":5385,"onctueux":5386,"juvamine":5387,"pques":5388,"##quin":5389,"pruneau":5390,"lubrifiant":5391,"estipharm":5392,"aussie":5393,"met":5394,"taureau":5395,"##bos":5396,"##kup":5397,"##enn":5398,"env":5399,"##agnac":5400,"coppa":5401,"sanglier":5402,"vrai":5403,"jumbo":5404,"pistolet":5405,"nor":5406,"##ken":5407,"##asun":5408,"##acte":5409,"vao":5410,"ongle":5411,"##dazs":5412,"expertise":5413,"scholl":5414,"dauvergne":5415,"catch":5416,"bulles":5417,"facile":5418,"calcium":5419,"lys":5420,"sib":5421,"mint":5422,"olia":5423,"profond":5424,"ravioles":5425,"##pacho":5426,"moules":5427,"brle":5428,"darg":5429,"courge":5430,"ltou":5431,"##iversaire":5432,"moments":5433,"dcortiques":5434,"esthederm":5435,"af":5436,"ov":5437,"##lan":5438,"##harma":5439,"mij":5440,"pale":5441,"arkop":5442,"cranberries":5443,"arkopharma":5444,"kot":5445,"slim":5446,"##tela":5447,"bic":5448,"pean":5449,"transp":5450,"basqu":5451,"brets":5452,"##colis":5453,"antimoustiques":5454,"silk":5455,"##do":5456,"##hau":5457,"##antile":5458,"##icile":5459,"mach":5460,"##tare":5461,"##543":5462,"##541":5463,"##540":5464,"##546":5465,"##547":5466,"##545":5467,"##548":5468,"##549":5469,"##542":5470,"##583":5471,"##581":5472,"##580":5473,"##586":5474,"##587":5475,"##585":5476,"##584":5477,"##589":5478,"##582":5479,"##593":5480,"##591":5481,"##590":5482,"##596":5483,"##597":5484,"##595":5485,"##594":5486,"##598":5487,"##592":5488,"printe":5489,"##573":5490,"##571":5491,"##570":5492,"##576":5493,"##572":5494,"brocolis":5495,"pops":5496,"univers":5497,"infantile":5498,"pik":5499,"tonic":5500,"pressade":5501,"cheesec":5502,"oxy":5503,"hans":5504,"studio":5505,"sensibil":5506,"bretonne":5507,"veloute":5508,"bananes":5509,"damandes":5510,"indust":5511,"##crme":5512,"weight":5513,"type":5514,"agricole":5515,"cig":5516,"goy":5517,"##fresh":5518,"##vant":5519,"mak":5520,"cold":5521,"tubes":5522,"montfort":5523,"instantan":5524,"pyrnes":5525,"pivoine":5526,"antitraces":5527,"##gy":5528,"##ern":5529,"##itaine":5530,"vanish":5531,"jacquet":5532,"mustela":5533,"printemps":5534,"industrielle":5535,"caud":5536,"pans":5537,"##orp":5538,"##issol":5539,"purs":5540,"farfal":5541,"gerbl":5542,"fantais":5543,"butternut":5544,"poivron":5545,"caudalie":5546,"oetker":5547,"yum":5548,"dema":5549,"entiers":5550,"casa":5551,"dshydrat":5552,"rustica":5553,"bub":5554,"cumin":5555,"fen":5556,"##rn":5557,"##ffer":5558,"colle":5559,"glif":5560,"lorange":5561,"gourmands":5562,"coiffante":5563,"calendula":5564,"##oko":5565,"elixir":5566,"felix":5567,"130":5568,"110":5569,"230":5570,"210":5571,"330":5572,"310":5573,"430":5574,"410":5575,"530":5576,"510":5577,"##tb":5578,"ext":5579,"master":5580,"tartare":5581,"aprssoleil":5582,"laurence":5583,"feuillet":5584,"boudins":5585,"nitrite":5586,"allege":5587,"dumont":5588,"131":5589,"120":5590,"160":5591,"231":5592,"220":5593,"260":5594,"331":5595,"320":5596,"360":5597,"431":5598,"420":5599,"460":5600,"531":5601,"520":5602,"60":5603,"70":5604,"80":5605,"90":5606,"##ouss":5607,"cleri":5608,"##opa":5609,"roug":5610,"140":5611,"180":5612,"190":5613,"240":5614,"280":5615,"290":5616,"340":5617,"380":5618,"390":5619,"440":5620,"480":5621,"490":5622,"150":5623,"250":5624,"350":5625,"450":5626,"170":5627,"270":5628,"370":5629,"470":5630,"ond":5631,"naturals":5632,"time":5633,"alsac":5634,"chaude":5635,"insectic":5636,"pcan":5637,"tet":5638,"##pp":5639,"##seille":5640,"party":5641,"flage":5642,"compak":5643,"##ubert":5644,"broc":5645,"ammon":5646,"baba":5647,"essie":5648,"milk":5649,"pavot":5650,"cristaux":5651,"rum":5652,"##autre":5653,"##illas":5654,"shoot":5655,"vaches":5656,"orang":5657,"##own":5658,"brasserie":5659,"truite":5660,"snow":5661,"soyeux":5662,"advanced":5663,"coquelicot":5664,"101":5665,"121":5666,"161":5667,"201":5668,"221":5669,"261":5670,"301":5671,"321":5672,"361":5673,"401":5674,"421":5675,"461":5676,"501":5677,"521":5678,"61":5679,"71":5680,"81":5681,"91":5682,"cel":5683,"jonz":5684,"kor":5685,"soie":5686,"##ochon":5687,"##bab":5688,"##cale":5689,"##vette":5690,"crations":5691,"incon":5692,"141":5693,"181":5694,"191":5695,"241":5696,"281":5697,"291":5698,"341":5699,"381":5700,"391":5701,"441":5702,"481":5703,"491":5704,"##veurs":5705,"151":5706,"251":5707,"351":5708,"451":5709,"171":5710,"271":5711,"371":5712,"471":5713,"##mail":5714,"##oney":5715,"avocat":5716,"racines":5717,"lemmental":5718,"flageo":5719,"ammoniaque":5720,"jonzac":5721,"rf":5722,"##ouch":5723,"##illy":5724,"##aisse":5725,"douceurs":5726,"socopa":5727,"cif":5728,"dad":5729,"tat":5730,"##lane":5731,"##tres":5732,"##via":5733,"##isselles":5734,"##andy":5735,"poivres":5736,"serum":5737,"villars":5738,"fromagerie":5739,"pitch":5740,"cne":5741,"chu":5742,"thai":5743,"##ube":5744,"speculoos":5745,"maquillage":5746,"brosses":5747,"alpina":5748,"pelu":5749,"compatibles":5750,"food":5751,"nair":5752,"##tien":5753,"##roc":5754,"sos":5755,"##tinence":5756,"adh":5757,"signature":5758,"blocs":5759,"elastiques":5760,"okay":5761,"don":5762,"gress":5763,"hubert":5764,"##bar":5765,"vanilla":5766,"print":5767,"prpar":5768,"savoy":5769,"filous":5770,"packet":5771,"camar":5772,"##brn":5773,"vgtaux":5774,"exotiques":5775,"##chalote":5776,"113":5777,"103":5778,"123":5779,"163":5780,"213":5781,"203":5782,"223":5783,"263":5784,"313":5785,"303":5786,"323":5787,"363":5788,"413":5789,"403":5790,"423":5791,"463":5792,"513":5793,"503":5794,"523":5795,"63":5796,"73":5797,"83":5798,"93":5799,"doie":5800,"mr":5801,"win":5802,"##uites":5803,"crmes":5804,"potage":5805,"143":5806,"183":5807,"193":5808,"243":5809,"283":5810,"293":5811,"343":5812,"383":5813,"393":5814,"443":5815,"483":5816,"493":5817,"153":5818,"253":5819,"353":5820,"453":5821,"173":5822,"273":5823,"373":5824,"473":5825,"tramier":5826,"##otsbr":5827,"allotsbr":5828,"sensations":5829,"emball":5830,"allotman":5831,"allotbrn":5832,"ivoire":5833,"citronnade":5834,"kotyd":5835,"dieux":5836,"fau":5837,"yl":5838,"##doc":5839,"##gence":5840,"##pu":5841,"laur":5842,"##eup":5843,"doritos":5844,"perrier":5845,"pizz":5846,"dananas":5847,"lorraine":5848,"brioches":5849,"dtartrant":5850,"diges":5851,"itin":5852,"sb":5853,"##tage":5854,"##yes":5855,"##kk":5856,"##adel":5857,"acid":5858,"milhau":5859,"manix":5860,"hyginique":5861,"bordeaux":5862,"##naudie":5863,"reblochon":5864,"incontinence":5865,"dant":5866,"fun":5867,"##quot":5868,"##ami":5869,"##uret":5870,"frui":5871,"ard":5872,"premier":5873,"larnaudie":5874,"napol":5875,"syst":5876,"botan":5877,"jetable":5878,"lactose":5879,"etui":5880,"kotydia":5881,"itinraire":5882,"##483":5883,"##481":5884,"##480":5885,"##486":5886,"##487":5887,"##485":5888,"##484":5889,"##489":5890,"##482":5891,"##493":5892,"##491":5893,"##490":5894,"##496":5895,"##497":5896,"##495":5897,"##494":5898,"##498":5899,"##492":5900,"queu":5901,"##ervesc":5902,"mega":5903,"gratte":5904,"campagn":5905,"cotons":5906,"truff":5907,"revitalift":5908,"authentique":5909,"straw":5910,"jerrys":5911,"norv":5912,"bell":5913,"ms":5914,"suite":5915,"##lo":5916,"##bi":5917,"##illot":5918,"art":5919,"salaisons":5920,"polen":5921,"grany":5922,"bahier":5923,"makeup":5924,"sano":5925,"##care":5926,"str":5927,"##riqu":5928,"laiterie":5929,"goter":5930,"croquer":5931,"couchescul":5932,"effervesc":5933,"tiram":5934,"souffl":5935,"##orelli":5936,"clmentine":5937,"moustiques":5938,"gavottes":5939,"basquaise":5940,"cise":5941,"riv":5942,"ttes":5943,"##ao":5944,"##mi":5945,"##pone":5946,"##isu":5947,"change":5948,"ink":5949,"compacte":5950,"pastis":5951,"darphin":5952,"frizz":5953,"cheesecake":5954,"flageolets":5955,"ronde":5956,"vpf":5957,"##bat":5958,"##ouil":5959,"##iser":5960,"##ici":5961,"##chement":5962,"spl":5963,"antich":5964,"##una":5965,"morteau":5966,"manu":5967,"manuc":5968,"indul":5969,"assaisonne":5970,"goyave":5971,"tiramisu":5972,"lul":5973,"##isma":5974,"crpe":5975,"mik":5976,"citronnelle":5977,"dep":5978,"fabriqu":5979,"savane":5980,"nettoyage":5981,"mering":5982,"microond":5983,"ambr":5984,"divine":5985,"flamme":5986,"pacif":5987,"ylang":5988,"son":5989,"##gor":5990,"##eun":5991,"boules":5992,"comfort":5993,"ther":5994,"brochettes":5995,"doranges":5996,"##istro":5997,"acide":5998,"sojasun":5999,"lovea":6000,"##ooster":6001,"fumes":6002,"kh":6003,"vrac":6004,"##aches":6005,"##orld":6006,"poux":6007,"bourbons":6008,"calisma":6009,"perfecteur":6010,"dacacia":6011,"rougj":6012,"daddy":6013,"polenta":6014,"manucure":6015,"dig":6016,"##ouce":6017,"##oses":6018,"boulettes":6019,"glob":6020,"crac":6021,"forme":6022,"boursin":6023,"agilis":6024,"orlane":6025,"bergam":6026,"pursoup":6027,"fenouil":6028,"indulgence":6029,"cau":6030,"##dc":6031,"##vor":6032,"cha":6033,"##less":6034,"anton":6035,"intima":6036,"lips":6037,"verrine":6038,"crazy":6039,"croiss":6040,"ultime":6041,"farce":6042,"karite":6043,"dist":6044,"quit":6045,"tuile":6046,"##ode":6047,"##kap":6048,"##issime":6049,"alf":6050,"##osse":6051,"paquito":6052,"##oderm":6053,"florelli":6054,"antiim":6055,"prou":6056,"##onnettes":6057,"quil":6058,"dolivier":6059,"spculoos":6060,"tuis":6061,"standrd":6062,"nappage":6063,"charentes":6064,"kebab":6065,"roc":6066,"##ors":6067,"caresse":6068,"bouton":6069,"very":6070,"coat":6071,"physiologique":6072,"jeunesse":6073,"interdentaire":6074,"##oureux":6075,"toasts":6076,"kne":6077,"cake":6078,"##tral":6079,"soude":6080,"cast":6081,"##iculteur":6082,"prcieux":6083,"insecticide":6084,"bistro":6085,"pine":6086,"tad":6087,"uf":6088,"##atine":6089,"##elys":6090,"##asti":6091,"##893":6092,"##891":6093,"##890":6094,"##896":6095,"##897":6096,"##895":6097,"##894":6098,"##898":6099,"##892":6100,"surgel":6101,"mascarpone":6102,"isigny":6103,"oth":6104,"##dcr":6105,"##sec":6106,"ross":6107,"coca":6108,"##oree":6109,"##ims":6110,"gambas":6111,"berry":6112,"bran":6113,"im":6114,"por":6115,"ray":6116,"##tigue":6117,"stay":6118,"##ieres":6119,"contin":6120,"##ogyl":6121,"##ritz":6122,"lingette":6123,"##dess":6124,"watchers":6125,"tortillas":6126,"gamarde":6127,"tisane":6128,"eugene":6129,"demakup":6130,"lulu":6131,"atel":6132,"dair":6133,"##lle":6134,"##aa":6135,"##tur":6136,"##my":6137,"##kl":6138,"clo":6139,"champignon":6140,"allg":6141,"tropiques":6142,"sanogyl":6143,"rouleau":6144,"rafferm":6145,"squeeze":6146,"cosmetics":6147,"cend":6148,"jord":6149,"krat":6150,"rest":6151,"set":6152,"##uil":6153,"##isson":6154,"apple":6155,"tete":6156,"sales":6157,"recons":6158,"nouv":6159,"regular":6160,"exotique":6161,"craquantes":6162,"dat":6163,"##ences":6164,"petite":6165,"verres":6166,"##ctive":6167,"instantanes":6168,"assaisonnement":6169,"ggrip":6170,"hagen":6171,"lyon":6172,"luxe":6173,"##der":6174,"##tements":6175,"##agre":6176,"elab":6177,"merve":6178,"mga":6179,"fren":6180,"puissant":6181,"macaron":6182,"crisp":6183,"forestire":6184,"winter":6185,"ciseaux":6186,"pran":6187,"yor":6188,"second":6189,"bridel":6190,"gourmets":6191,"##aki":6192,"nutella":6193,"curcum":6194,"bretonnes":6195,"antipoux":6196,"cuir":6197,"souffle":6198,"rcoltes":6199,"antichute":6200,"##fast":6201,"##aco":6202,"caz":6203,"incar":6204,"haw":6205,"escalopes":6206,"panachs":6207,"souples":6208,"poitou":6209,"corporel":6210,"sanoflore":6211,"booster":6212,"ses":6213,"##311":6214,"##300":6215,"##326":6216,"##327":6217,"##325":6218,"##324":6219,"##328":6220,"##329":6221,"##316":6222,"##317":6223,"##315":6224,"##314":6225,"##318":6226,"##319":6227,"##306":6228,"##307":6229,"##305":6230,"##304":6231,"##308":6232,"##309":6233,"##322":6234,"##312":6235,"##302":6236,"##133":6237,"##100":6238,"##126":6239,"##127":6240,"##125":6241,"##124":6242,"##128":6243,"##129":6244,"##135":6245,"##134":6246,"##106":6247,"##107":6248,"##105":6249,"##104":6250,"##108":6251,"##109":6252,"##136":6253,"##137":6254,"##138":6255,"##139":6256,"##122":6257,"##132":6258,"##102":6259,"##131":6260,"##130":6261,"##033":6262,"##011":6263,"##026":6264,"##027":6265,"##025":6266,"##024":6267,"##028":6268,"##029":6269,"##035":6270,"##034":6271,"##016":6272,"##017":6273,"##015":6274,"##014":6275,"##018":6276,"##019":6277,"##036":6278,"##037":6279,"##038":6280,"##039":6281,"##022":6282,"##032":6283,"##012":6284,"##031":6285,"##030":6286,"##010":6287,"##233":6288,"##211":6289,"##200":6290,"##226":6291,"##227":6292,"##225":6293,"##224":6294,"##228":6295,"##229":6296,"##235":6297,"##234":6298,"##216":6299,"##217":6300,"##215":6301,"##214":6302,"##218":6303,"##219":6304,"##206":6305,"##207":6306,"##205":6307,"##204":6308,"##208":6309,"##209":6310,"##236":6311,"##237":6312,"##238":6313,"##239":6314,"##232":6315,"##212":6316,"##202":6317,"##231":6318,"##230":6319,"##210":6320,"##201":6321,"##213":6322,"##203":6323,"##oupe":6324,"##arom":6325,"bioni":6326,"##mec":6327,"marins":6328,"ecoc":6329,"##axer":6330,"italienne":6331,"paysanne":6332,"dynaxer":6333,"microfibre":6334,"bionike":6335,"lamb":6336,"pelle":6337,"voy":6338,"wond":6339,"##633":6340,"##611":6341,"##600":6342,"##626":6343,"##627":6344,"##625":6345,"##624":6346,"##628":6347,"##629":6348,"##635":6349,"##634":6350,"##616":6351,"##617":6352,"##615":6353,"##614":6354,"##618":6355,"##619":6356,"##606":6357,"##607":6358,"##605":6359,"##604":6360,"##608":6361,"##609":6362,"##636":6363,"##637":6364,"##638":6365,"##639":6366,"##622":6367,"##632":6368,"##612":6369,"##602":6370,"##631":6371,"##630":6372,"##610":6373,"##601":6374,"##613":6375,"##603":6376,"##geoise":6377,"deep":6378,"dosette":6379,"dentel":6380,"usage":6381,"nae":6382,"rfrig":6383,"strawberry":6384,"hmec":6385,"ligne":6386,"wax":6387,"##hi":6388,"##acore":6389,"colom":6390,"blanquette":6391,"trait":6392,"vitres":6393,"##rieur":6394,"rasage":6395,"##leng":6396,"film":6397,"moelleuses":6398,"hachis":6399,"silicium":6400,"parmig":6401,"prime":6402,"rituel":6403,"bergamote":6404,"elaboree":6405,"curcuma":6406,"hmecleng":6407,"gerv":6408,"mkl":6409,"##rola":6410,"conti":6411,"end":6412,"##mber":6413,"##ucteur":6414,"terax":6415,"##onnade":6416,"casher":6417,"speck":6418,"##anova":6419,"swi":6420,"gouters":6421,"##activ":6422,"ballot":6423,"semip":6424,"talc":6425,"albacore":6426,"beck":6427,"nacr":6428,"fossier":6429,"fantaisie":6430,"laurier":6431,"quitable":6432,"antiimperfections":6433,"mu":6434,"##ilge":6435,"##ulaire":6436,"pais":6437,"tepe":6438,"pasta":6439,"##983":6440,"##981":6441,"##980":6442,"##986":6443,"##987":6444,"##985":6445,"##984":6446,"##982":6447,"##istou":6448,"##843":6449,"##841":6450,"##840":6451,"##846":6452,"##847":6453,"##845":6454,"##842":6455,"##943":6456,"##941":6457,"##940":6458,"##946":6459,"##947":6460,"##945":6461,"##942":6462,"##453":6463,"##451":6464,"##450":6465,"##456":6466,"##452":6467,"##853":6468,"##851":6469,"##850":6470,"##856":6471,"##852":6472,"##953":6473,"##951":6474,"##950":6475,"##956":6476,"##952":6477,"##473":6478,"##471":6479,"##470":6480,"##476":6481,"##472":6482,"##873":6483,"##871":6484,"##870":6485,"##876":6486,"##872":6487,"##973":6488,"##971":6489,"##970":6490,"##976":6491,"##972":6492,"aromates":6493,"dcouenn":6494,"global":6495,"antona":6496,"cendr":6497,"teraxyl":6498,"email":6499,"##ott":6500,"##rante":6501,"made":6502,"maxx":6503,"goters":6504,"nuk":6505,"pyrel":6506,"droites":6507,"systme":6508,"azz":6509,"##mau":6510,"##var":6511,"##chard":6512,"##gele":6513,"spa":6514,"vanill":6515,"litchi":6516,"perform":6517,"atop":6518,"gressins":6519,"nouvelle":6520,"kris":6521,"world":6522,"##lie":6523,"##sh":6524,"ches":6525,"##oix":6526,"##ssin":6527,"flore":6528,"comme":6529,"compagn":6530,"graine":6531,"teinture":6532,"repulp":6533,"haut":6534,"charcu":6535,"##citron":6536,"confiserie":6537,"persillade":6538,"ltouffe":6539,"camargue":6540,"casting":6541,"atelier":6542,"##lin":6543,"##route":6544,"chouc":6545,"lad":6546,"##neaux":6547,"plante":6548,"##ipes":6549,"elgy":6550,"##iniment":6551,"elect":6552,"crispy":6553,"sodas":6554,"printan":6555,"elgydium":6556,"mug":6557,"##733":6558,"##711":6559,"##700":6560,"##726":6561,"##727":6562,"##725":6563,"##724":6564,"##728":6565,"##729":6566,"##735":6567,"##734":6568,"##716":6569,"##717":6570,"##715":6571,"##714":6572,"##718":6573,"##719":6574,"##706":6575,"##707":6576,"##705":6577,"##704":6578,"##708":6579,"##709":6580,"##736":6581,"##737":6582,"##738":6583,"##739":6584,"##766":6585,"##755":6586,"##744":6587,"##788":6588,"##799":6589,"##767":6590,"##765":6591,"##764":6592,"##768":6593,"##769":6594,"##722":6595,"##732":6596,"##712":6597,"##702":6598,"##731":6599,"##730":6600,"##710":6601,"##701":6602,"##762":6603,"##713":6604,"##703":6605,"##720":6606,"##721":6607,"##723":6608,"##760":6609,"##761":6610,"##763":6611,"##nie":6612,"##top":6613,"##we":6614,"scorp":6615,"normale":6616,"chiches":6617,"haricot":6618,"cuisiner":6619,"plaisirs":6620,"family":6621,"turbo":6622,"cube":6623,"dlicat":6624,"langue":6625,"guimau":6626,"torsades":6627,"biberon":6628,"emballages":6629,"choucroute":6630,"ak":6631,"bnd":6632,"##tie":6633,"cham":6634,"##ione":6635,"carbon":6636,"parad":6637,"brush":6638,"moka":6639,"actions":6640,"allum":6641,"dmaquiller":6642,"complete":6643,"fibres":6644,"chevaliers":6645,"nicol":6646,"##rouge":6647,"gerl":6648,"##uz":6649,"##itu":6650,"##mega":6651,"##omp":6652,"crunch":6653,"##aplast":6654,"froid":6655,"chicore":6656,"fruix":6657,"bref":6658,"mche":6659,"##gala":6660,"##kin":6661,"##kue":6662,"##ouli":6663,"##urin":6664,"##inex":6665,"##sia":6666,"##uls":6667,"poche":6668,"essences":6669,"acrola":6670,"epil":6671,"absolue":6672,"pantene":6673,"james":6674,"couchesculottes":6675,"voyage":6676,"swiffer":6677,"mol":6678,"##533":6679,"##511":6680,"##500":6681,"##526":6682,"##527":6683,"##525":6684,"##524":6685,"##528":6686,"##529":6687,"##535":6688,"##534":6689,"##516":6690,"##517":6691,"##515":6692,"##514":6693,"##518":6694,"##519":6695,"##506":6696,"##507":6697,"##505":6698,"##504":6699,"##508":6700,"##509":6701,"##536":6702,"##537":6703,"##538":6704,"##539":6705,"##566":6706,"##577":6707,"##544":6708,"##588":6709,"##599":6710,"##567":6711,"##565":6712,"##564":6713,"##568":6714,"##569":6715,"##522":6716,"##575":6717,"##574":6718,"##578":6719,"##579":6720,"##532":6721,"##512":6722,"##502":6723,"##531":6724,"##530":6725,"##510":6726,"##501":6727,"##562":6728,"##513":6729,"##503":6730,"##520":6731,"##521":6732,"##523":6733,"##560":6734,"##561":6735,"##563":6736,"##ilac":6737,"bioc":6738,"bey":6739,"hyper":6740,"protections":6741,"garni":6742,"jacquot":6743,"batonn":6744,"chiffonnade":6745,"hautsgala":6746,"bourguign":6747,"bene":6748,"land":6749,"bovine":6750,"panc":6751,"filire":6752,"avril":6753,"batiste":6754,"santal":6755,"entremet":6756,"rgulier":6757,"peanut":6758,"korres":6759,"bche":6760,"intim":6761,"champs":6762,"vald":6763,"fraiches":6764,"fitness":6765,"naissance":6766,"pavs":6767,"sanguine":6768,"cochonou":6769,"mikado":6770,"look":6771,"##433":6772,"##411":6773,"##400":6774,"##426":6775,"##427":6776,"##425":6777,"##424":6778,"##428":6779,"##429":6780,"##435":6781,"##434":6782,"##416":6783,"##417":6784,"##415":6785,"##414":6786,"##418":6787,"##419":6788,"##406":6789,"##407":6790,"##405":6791,"##404":6792,"##408":6793,"##409":6794,"##436":6795,"##422":6796,"##432":6797,"##412":6798,"##402":6799,"##431":6800,"##430":6801,"##410":6802,"##401":6803,"##413":6804,"##403":6805,"##420":6806,"##421":6807,"##423":6808,"##iane":6809,"##ache":6810,"##nett":6811,"##fle":6812,"airw":6813,"finement":6814,"##matic":6815,"ricin":6816,"mditerrane":6817,"chesnel":6818,"benedic":6819,"dissol":6820,"vib":6821,"##437":6822,"##438":6823,"##439":6824,"##466":6825,"##477":6826,"##455":6827,"##488":6828,"##499":6829,"##467":6830,"##465":6831,"##464":6832,"##468":6833,"##469":6834,"##475":6835,"##474":6836,"##478":6837,"##479":6838,"##454":6839,"##458":6840,"##459":6841,"##457":6842,"##462":6843,"##460":6844,"##461":6845,"##463":6846,"##833":6847,"##811":6848,"##800":6849,"##826":6850,"##827":6851,"##825":6852,"##824":6853,"##828":6854,"##829":6855,"##835":6856,"##834":6857,"##816":6858,"##817":6859,"##815":6860,"##814":6861,"##818":6862,"##819":6863,"##806":6864,"##807":6865,"##805":6866,"##804":6867,"##808":6868,"##809":6869,"##836":6870,"##837":6871,"##838":6872,"##839":6873,"##866":6874,"##877":6875,"##855":6876,"##844":6877,"##899":6878,"##867":6879,"##865":6880,"##864":6881,"##868":6882,"##869":6883,"##822":6884,"##875":6885,"##874":6886,"##878":6887,"##879":6888,"##854":6889,"##858":6890,"##859":6891,"##832":6892,"##812":6893,"##802":6894,"##831":6895,"##830":6896,"##810":6897,"##857":6898,"##801":6899,"##862":6900,"##813":6901,"##803":6902,"##848":6903,"##849":6904,"##820":6905,"##821":6906,"##823":6907,"##860":6908,"##861":6909,"##863":6910,"##933":6911,"##911":6912,"##900":6913,"##926":6914,"##927":6915,"##925":6916,"##924":6917,"##928":6918,"##929":6919,"##935":6920,"##934":6921,"##916":6922,"##917":6923,"##915":6924,"##914":6925,"##918":6926,"##919":6927,"##906":6928,"##907":6929,"##905":6930,"##904":6931,"##908":6932,"##909":6933,"##936":6934,"##937":6935,"##938":6936,"##939":6937,"##966":6938,"##977":6939,"##955":6940,"##944":6941,"##988":6942,"##967":6943,"##965":6944,"##964":6945,"##968":6946,"##969":6947,"##922":6948,"##975":6949,"##974":6950,"##978":6951,"##979":6952,"##954":6953,"##958":6954,"##959":6955,"##932":6956,"##912":6957,"##902":6958,"##931":6959,"##930":6960,"##910":6961,"##957":6962,"##901":6963,"##962":6964,"##913":6965,"##903":6966,"##948":6967,"##949":6968,"##989":6969,"##920":6970,"##921":6971,"##923":6972,"##960":6973,"##961":6974,"##963":6975,"##alp":6976,"##iderm":6977,"##iennes":6978,"sols":6979,"prec":6980,"tartinable":6981,"##rasage":6982,"##clair":6983,"culotte":6984,"prcision":6985,"citrons":6986,"daim":6987,"doypack":6988,"wild":6989,"##fi":6990,"##olles":6991,"##ronz":6992,"ark":6993,"brew":6994,"guadel":6995,"##essentiel":6996,"muscad":6997,"fleuret":6998,"rpare":6999,"guadeloupe":7000,"bado":7001,"lus":7002,"mots":7003,"##rfl":7004,"##gas":7005,"##gip":7006,"##pom":7007,"##rent":7008,"##eno":7009,"##ineken":7010,"coing":7011,"artes":7012,"ternes":7013,"frangip":7014,"##tream":7015,"heineken":7016,"toutes":7017,"neiges":7018,"##john":7019,"algues":7020,"chataigne":7021,"cir":7022,"##ee":7023,"##wl":7024,"##ania":7025,"##icor":7026,"anc":7027,"anat":7028,"spicy":7029,"parfa":7030,"puressentiel":7031,"henaff":7032,"argouges":7033,"##color":7034,"declor":7035,"revitalisant":7036,"respons":7037,"breakfast":7038,"##origin":7039,"digestion":7040,"kratine":7041,"compagnie":7042,"benedicta":7043,"aile":7044,"mans":7045,"sam":7046,"##pur":7047,"##chois":7048,"antif":7049,"crale":7050,"cremes":7051,"mode":7052,"scjohn":7053,"##ggiano":7054,"tiar":7055,"bigard":7056,"sensibilit":7057,"orangina":7058,"sodastream":7059,"scjohnsn":7060,"##oin":7061,"##ios":7062,"##este":7063,"marco":7064,"soins":7065,"##ize":7066,"vivelle":7067,"bordeau":7068,"denfants":7069,"therap":7070,"merveille":7071,"intimy":7072,"cm":7073,"prig":7074,"soir":7075,"fru":7076,"broche":7077,"americ":7078,"mentos":7079,"ecologique":7080,"fums":7081,"lamande":7082,"varis":7083,"hyaluronique":7084,"nescafe":7085,"dagrumes":7086,"bourguignonne":7087,"rv":7088,"wal":7089,"##aou":7090,"##ppe":7091,"##isateur":7092,"##ari":7093,"matures":7094,"delic":7095,"larg":7096,"doseur":7097,"magnolia":7098,"aprsrasage":7099,"irland":7100,"##ajou":7101,"cirage":7102,"bernard":7103,"glifis":7104,"pacifique":7105,"badoit":7106,"##nal":7107,"##dog":7108,"reggiano":7109,"chef":7110,"mask":7111,"danao":7112,"little":7113,"usages":7114,"excel":7115,"grandmere":7116,"bites":7117,"fu":7118,"hum":7119,"handy":7120,"loc":7121,"##expert":7122,"##rote":7123,"cryst":7124,"prog":7125,"flash":7126,"antirouge":7127,"panett":7128,"peautre":7129,"phot":7130,"lunettes":7131,"safran":7132,"grandmre":7133,"##hydratant":7134,"brandade":7135,"##ruc":7136,"##anne":7137,"bios":7138,"##rid":7139,"anneau":7140,"contis":7141,"cov":7142,"##retto":7143,"supreme":7144,"vita":7145,"palla":7146,"adultes":7147,"phys":7148,"pharma":7149,"muscade":7150,"laloe":7151,"goji":7152,"##portcontact":7153,"sesame":7154,"contisportcontact":7155,"best":7156,"honey":7157,"id":7158,"jol":7159,"kon":7160,"wipes":7161,"##feu":7162,"##dor":7163,"##dgra":7164,"##eling":7165,"part":7166,"taft":7167,"whaou":7168,"litalie":7169,"##owl":7170,"orge":7171,"ruby":7172,"anniversaire":7173,"jordans":7174,"incarose":7175,"parmigiano":7176,"bun":7177,"late":7178,"sum":7179,"##itable":7180,"maz":7181,"colour":7182,"##aison":7183,"##ergen":7184,"saucissons":7185,"acajou":7186,"fermire":7187,"sacla":7188,"defence":7189,"automatique":7190,"fav":7191,"liniment":7192,"##ius":7193,"##doine":7194,"##inis":7195,"chim":7196,"##icta":7197,"blanch":7198,"colorante":7199,"brochette":7200,"originale":7201,"##ower":7202,"##ender":7203,"##framb":7204,"oxi":7205,"cajoline":7206,"tradilge":7207,"illumin":7208,"bubble":7209,"lre":7210,"origan":7211,"essential":7212,"##ckiser":7213,"modilac":7214,"gallet":7215,"kimber":7216,"ocean":7217,"seconds":7218,"performance":7219,"irlandais":7220,"kimberly":7221,"heu":7222,"iles":7223,"landes":7224,"##gre":7225,"##raux":7226,"bires":7227,"marmel":7228,"proexpert":7229,"claire":7230,"coray":7231,"arrange":7232,"crote":7233,"hydrate":7234,"matifiant":7235,"scand":7236,"acn":7237,"delices":7238,"jardinire":7239,"galnic":7240,"topic":7241,"after":7242,"coraya":7243,"stim":7244,"vend":7245,"##ika":7246,"##lys":7247,"##ason":7248,"##oiz":7249,"caesar":7250,"pomm":7251,"mouettes":7252,"core":7253,"croque":7254,"cuill":7255,"sauces":7256,"confitures":7257,"fondants":7258,"whiskey":7259,"certif":7260,"ravive":7261,"tagliatelle":7262,"lissage":7263,"fromagre":7264,"enrobes":7265,"dissolvant":7266,"##enza":7267,"##aude":7268,"natorigin":7269,"##aden":7270,"saver":7271,"sels":7272,"freshmatic":7273,"oranges":7274,"##bler":7275,"piments":7276,"turini":7277,"dabbaye":7278,"palmiers":7279,"professionnel":7280,"##joba":7281,"pineau":7282,"heude":7283,"lil":7284,"our":7285,"##lade":7286,"##ha":7287,"##rior":7288,"repar":7289,"##iafine":7290,"bebe":7291,"tech":7292,"lava":7293,"ult":7294,"brie":7295,"fermiere":7296,"##ptation":7297,"puget":7298,"francine":7299,"antimites":7300,"ogm":7301,"diamant":7302,"konjac":7303,"marmelade":7304,"heudebert":7305,"jaf":7306,"kiss":7307,"##erki":7308,"##alt":7309,"##antines":7310,"##ibus":7311,"monts":7312,"souper":7313,"provencale":7314,"antitaches":7315,"ederki":7316,"eclats":7317,"toltb":7318,"standard":7319,"bresse":7320,"hansaplast":7321,"allumettes":7322,"parfaite":7323,"jafaden":7324,"toltbowl":7325,"down":7326,"ib":7327,"##peautre":7328,"salami":7329,"taj":7330,"abe":7331,"dental":7332,"darvor":7333,"costa":7334,"flora":7335,"dhiver":7336,"pizzas":7337,"antirougeurs":7338,"ay":7339,"fuites":7340,"ger":7341,"htre":7342,"rives":7343,"tig":7344,"##nl":7345,"##olution":7346,"##rich":7347,"autob":7348,"brule":7349,"canalis":7350,"magique":7351,"tobler":7352,"pansement":7353,"erbor":7354,"albal":7355,"therapy":7356,"american":7357,"panettone":7358,"latex":7359,"toblerone":7360,"aisselles":7361,"kron":7362,"##late":7363,"##buc":7364,"##drat":7365,"##sie":7366,"##oiselle":7367,"antidess":7368,"beign":7369,"##ience":7370,"rob":7371,"unit":7372,"pinces":7373,"pepper":7374,"phytoc":7375,"plaquette":7376,"chanteclair":7377,"budget":7378,"dentelle":7379,"erborian":7380,"cint":7381,"rveil":7382,"schar":7383,"##oule":7384,"inox":7385,"##apic":7386,"fores":7387,"malin":7388,"effils":7389,"##diner":7390,"phili":7391,"floral":7392,"urinaires":7393,"mditerranenne":7394,"starbuc":7395,"chabrior":7396,"lavazza":7397,"autobronz":7398,"philips":7399,"imm":7400,"couche":7401,"dorient":7402,"nutritif":7403,"calin":7404,"pause":7405,"candy":7406,"cerealieres":7407,"dragibus":7408,"farfalle":7409,"cauvin":7410,"topicrem":7411,"cure":7412,"rpes":7413,"##pois":7414,"chine":7415,"##ulite":7416,"condition":7417,"clai":7418,"minraux":7419,"arbre":7420,"purifiante":7421,"bueno":7422,"lorient":7423,"nems":7424,"brasss":7425,"sardine":7426,"francais":7427,"responsable":7428,"aigre":7429,"rie":7430,"wom":7431,"##cer":7432,"##hou":7433,"##inc":7434,"##enbourg":7435,"chnes":7436,"chlor":7437,"ens":7438,"briques":7439,"##ongo":7440,"espuna":7441,"galb":7442,"ricola":7443,"vitamin":7444,"edulcorant":7445,"yogurt":7446,"venus":7447,"rafrachissante":7448,"kneipp":7449,"kronenbourg":7450,"forestier":7451,"coo":7452,"cest":7453,"ecar":7454,"kc":7455,"vide":7456,"zap":7457,"##tines":7458,"##fu":7459,"##bes":7460,"##ource":7461,"monoi":7462,"secure":7463,"dauberg":7464,"nourrit":7465,"dermat":7466,"presses":7467,"mexic":7468,"temptation":7469,"flammekue":7470,"bndicta":7471,"valdonne":7472,"prigord":7473,"starbucks":7474,"ecarlate":7475,"dale":7476,"dnesse":7477,"pdt":7478,"ram":7479,"ust":7480,"##em":7481,"##tea":7482,"inc":7483,"ins":7484,"clic":7485,"roti":7486,"purif":7487,"sele":7488,"morta":7489,"blonds":7490,"praline":7491,"activateur":7492,"macdoine":7493,"coeurs":7494,"sati":7495,"ushuaa":7496,"chauss":7497,"stylo":7498,"dantan":7499,"beckmann":7500,"tajine":7501,"bang":7502,"##utic":7503,"##alo":7504,"chocapic":7505,"boule":7506,"##opie":7507,"moulue":7508,"curs":7509,"longs":7510,"speciale":7511,"jojoba":7512,"bldilait":7513,"rafrachissant":7514,"chaudron":7515,"gastronom":7516,"armatise":7517,"lis":7518,"torti":7519,"##jou":7520,"##inine":7521,"say":7522,"ang":7523,"sauge":7524,"miner":7525,"taaj":7526,"origines":7527,"lital":7528,"myst":7529,"cottage":7530,"argent":7531,"bains":7532,"bldine":7533,"nergisant":7534,"yogh":7535,"instantanees":7536,"idees":7537,"dasie":7538,"occit":7539,"repulpant":7540,"antidesschement":7541,"ustrielle":7542,"grig":7543,"lr":7544,"sve":7545,"##orante":7546,"##urato":7547,"chia":7548,"bian":7549,"##asol":7550,"laino":7551,"biodgra":7552,"aneth":7553,"spir":7554,"friss":7555,"potato":7556,"elnett":7557,"##corn":7558,"orientale":7559,"##ghin":7560,"haagendazs":7561,"pateliere":7562,"catalane":7563,"poulard":7564,"york":7565,"cinturato":7566,"galbani":7567,"haleine":7568,"punch":7569,"rve":7570,"sure":7571,"##ef":7572,"##dr":7573,"##eries":7574,"##riane":7575,"maillot":7576,"sofid":7577,"lgres":7578,"parisienne":7579,"micuit":7580,"merlu":7581,"pulco":7582,"couronne":7583,"croustilles":7584,"haus":7585,"brossette":7586,"keranove":7587,"clipper":7588,"guiot":7589,"boulangere":7590,"##lantique":7591,"rfrigr":7592,"nicolas":7593,"biodgrad":7594,"sofidl":7595,"dagen":7596,"germ":7597,"kub":7598,"##yr":7599,"##pomme":7600,"##artre":7601,"##acl":7602,"caries":7603,"spice":7604,"plum":7605,"flamb":7606,"just":7607,"qual":7608,"morin":7609,"##phase":7610,"yogi":7611,"knacks":7612,"piquant":7613,"caramlises":7614,"crystal":7615,"grign":7616,"ham":7617,"too":7618,"##uer":7619,"##yte":7620,"##rist":7621,"##mt":7622,"##gels":7623,"##etta":7624,"sofra":7625,"potenza":7626,"##idej":7627,"##resshamp":7628,"season":7629,"lorina":7630,"lart":7631,"clement":7632,"toul":7633,"salsa":7634,"litalienne":7635,"bianco":7636,"soframar":7637,"fille":7638,"fini":7639,"torr":7640,"##ouche":7641,"apresshamp":7642,"rouss":7643,"antiox":7644,"##mbergen":7645,"prf":7646,"intensive":7647,"quaker":7648,"schm":7649,"chewinggums":7650,"grimbergen":7651,"multivitamin":7652,"effervescent":7653,"##astix":7654,"gervais":7655,"bav":7656,"dats":7657,"festi":7658,"gay":7659,"ober":7660,"sicile":7661,"##elli":7662,"congl":7663,"##ando":7664,"moisture":7665,"salad":7666,"##moutier":7667,"malongo":7668,"cosme":7669,"mnage":7670,"pepsi":7671,"tapas":7672,"accessoire":7673,"rsistant":7674,"norvge":7675,"cazau":7676,"zapetti":7677,"gue":7678,"##nu":7679,"suav":7680,"##sium":7681,"extradoux":7682,"blondepil":7683,"bufala":7684,"martini":7685,"bldner":7686,"neutre":7687,"ballantines":7688,"andouillettes":7689,"cruesli":7690,"frachr":7691,"cracotte":7692,"quilib":7693,"gor":7694,"house":7695,"lom":7696,"rice":7697,"vent":7698,"##dons":7699,"##erica":7700,"##urg":7701,"##igot":7702,"carab":7703,"sauter":7704,"spi":7705,"miettes":7706,"mousl":7707,"rem":7708,"potim":7709,"pinard":7710,"##ancia":7711,"##arent":7712,"##prote":7713,"prodig":7714,"pags":7715,"ondules":7716,"adhsive":7717,"alfap":7718,"cazaubon":7719,"eveil":7720,"faux":7721,"lh":7722,"licor":7723,"rene":7724,"rock":7725,"tit":7726,"##by":7727,"##oucheur":7728,"##rable":7729,"carre":7730,"coussin":7731,"baranne":7732,"tomato":7733,"fourre":7734,"irish":7735,"ristorante":7736,"fragiles":7737,"ecolier":7738,"dalep":7739,"qualite":7740,"mousline":7741,"han":7742,"mud":7743,"pch":7744,"paire":7745,"ure":7746,"##uis":7747,"##olo":7748,"chne":7749,"chick":7750,"sap":7751,"##oshi":7752,"less":7753,"armes":7754,"solgar":7755,"tourte":7756,"reserve":7757,"tolriane":7758,"physio":7759,"fanta":7760,"tisan":7761,"metz":7762,"meringue":7763,"rosso":7764,"wonder":7765,"batonnets":7766,"mis":7767,"nas":7768,"##lg":7769,"##no":7770,"##gal":7771,"##perie":7772,"##inage":7773,"##ensif":7774,"##ceutic":7775,"pad":7776,"##odon":7777,"noirmoutier":7778,"cann":7779,"rooi":7780,"monaco":7781,"tartes":7782,"seau":7783,"dentastix":7784,"##erball":7785,"powerball":7786,"pleine":7787,"saforelle":7788,"##leeve":7789,"tanoshi":7790,"girolles":7791,"muguet":7792,"mortad":7793,"suavinex":7794,"potimar":7795,"bad":7796,"ours":7797,"##pck":7798,"##kitt":7799,"##oulet":7800,"suisses":7801,"##ricaine":7802,"cond":7803,"clos":7804,"monte":7805,"terroir":7806,"rasp":7807,"gouda":7808,"dermoph":7809,"nutritive":7810,"prcieuse":7811,"juicy":7812,"quiche":7813,"annay":7814,"alphanova":7815,"french":7816,"baleine":7817,"face":7818,"##ville":7819,"stri":7820,"##rial":7821,"sapin":7822,"##abel":7823,"##odent":7824,"gelcrme":7825,"hydral":7826,"grille":7827,"fondante":7828,"diet":7829,"reckitt":7830,"calm":7831,"garancia":7832,"grands":7833,"indian":7834,"nectarine":7835,"redensif":7836,"sudois":7837,"dboucheur":7838,"##oignons":7839,"chiffre":7840,"bte":7841,"cill":7842,"equil":7843,"gom":7844,"mm":7845,"mieux":7846,"##ilus":7847,"biore":7848,"poils":7849,"tripes":7850,"filiere":7851,"filtres":7852,"premiums":7853,"protgel":7854,"##tichaut":7855,"beaufort":7856,"floressance":7857,"grattantes":7858,"transparent":7859,"sureau":7860,"alfapac":7861,"filler":7862,"##oil":7863,"##orn":7864,"##acc":7865,"parab":7866,"##oprote":7867,"menth":7868,"quart":7869,"gots":7870,"labricot":7871,"menu":7872,"casso":7873,"lentes":7874,"toast":7875,"##asses":7876,"talika":7877,"##fleuri":7878,"cigal":7879,"azzur":7880,"biocyte":7881,"cdre":7882,"gorg":7883,"migu":7884,"##gen":7885,"##jour":7886,"christ":7887,"stress":7888,"marines":7889,"alla":7890,"panna":7891,"allerg":7892,"##mouches":7893,"##ommiers":7894,"mexique":7895,"ristretto":7896,"ladrme":7897,"florame":7898,"miguel":7899,"dici":7900,"hou":7901,"ode":7902,"pip":7903,"yoo":7904,"##ilia":7905,"##ted":7906,"##gem":7907,"fondantes":7908,"cocoon":7909,"dolin":7910,"mixs":7911,"magda":7912,"dartichauts":7913,"antitartre":7914,"smile":7915,"famille":7916,"gasc":7917,"boulangre":7918,"cantalouce":7919,"khl":7920,"raffermissant":7921,"raviveur":7922,"lilas":7923,"roussillon":7924,"conglation":7925,"rooibos":7926,"cantaloucemoi":7927,"az":7928,"camb":7929,"kre":7930,"##ail":7931,"##bs":7932,"##zer":7933,"##ery":7934,"##ory":7935,"sables":7936,"##tain":7937,"minral":7938,"##pee":7939,"rochers":7940,"##laise":7941,"rgal":7942,"cotta":7943,"gnre":7944,"gratuites":7945,"lacts":7946,"cuba":7947,"coupelle":7948,"simple":7949,"droite":7950,"ruchers":7951,"##puissant":7952,"scorpio":7953,"largile":7954,"##houette":7955,"ensole":7956,"cillit":7957,"bric":7958,"cuits":7959,"riss":7960,"wrap":7961,"##titu":7962,"##dl":7963,"##itta":7964,"##illons":7965,"pousses":7966,"liq":7967,"##ateau":7968,"arran":7969,"patchs":7970,"chtaignes":7971,"manava":7972,"##ollo":7973,"dpouss":7974,"coulommiers":7975,"##risons":7976,"ltuve":7977,"lauth":7978,"mosquito":7979,"ogx":7980,"richesse":7981,"hauser":7982,"potimarron":7983,"raspberry":7984,"ginger":7985,"##obio":7986,"##tdcr":7987,"vergers":7988,"city":7989,"cuvette":7990,"morrisons":7991,"bug":7992,"patch":7993,"guar":7994,"cassoulet":7995,"legal":7996,"regard":7997,"melitta":7998,"##brations":7999,"tendance":8000,"pastque":8001,"prodtdcr":8002,"exfoli":8003,"craline":8004,"baguette":8005,"saumur":8006,"peluche":8007,"queues":8008,"##framboise":8009,"damb":8010,"fore":8011,"fizz":8012,"pen":8013,"squ":8014,"##vale":8015,"##how":8016,"##alia":8017,"chard":8018,"chun":8019,"sugar":8020,"cavi":8021,"midi":8022,"##idt":8023,"piccol":8024,"##aya":8025,"bretons":8026,"melange":8027,"tampon":8028,"colorshow":8029,"viennoiserie":8030,"ronds":8031,"##vanille":8032,"dailies":8033,"##allows":8034,"potatoes":8035,"oberti":8036,"yooji":8037,"lauthentique":8038,"caviar":8039,"gche":8040,"wella":8041,"##aw":8042,"##uro":8043,"chan":8044,"birab":8045,"lag":8046,"shampoo":8047,"clavel":8048,"purobio":8049,"##ctn":8050,"##max":8051,"michaud":8052,"recol":8053,"argal":8054,"hache":8055,"dabricots":8056,"professionals":8057,"dlicates":8058,"##onzola":8059,"systeme":8060,"planteur":8061,"carbonara":8062,"cooper":8063,"biraben":8064,"claveles":8065,"ailes":8066,"mchs":8067,"naut":8068,"sgl":8069,"ts":8070,"##lr":8071,"##poire":8072,"##key":8073,"##abricot":8074,"chocolatier":8075,"benckiser":8076,"gira":8077,"pistaches":8078,"jeune":8079,"denfance":8080,"traitant":8081,"gastronomie":8082,"yoghurt":8083,"licorne":8084,"ast":8085,"dhuile":8086,"dital":8087,"fdt":8088,"pne":8089,"ponte":8090,"veu":8091,"via":8092,"##ilet":8093,"##itas":8094,"##quoise":8095,"miroir":8096,"plume":8097,"confites":8098,"lindienne":8099,"lentille":8100,"##berger":8101,"quatre":8102,"armagnac":8103,"antioxyd":8104,"gorgonzola":8105,"full":8106,"iss":8107,"ventre":8108,"wok":8109,"##elac":8110,"bonjour":8111,"lavera":8112,"##irrit":8113,"transpirant":8114,"crepes":8115,"##onnais":8116,"sea":8117,"normande":8118,"ecl":8119,"brais":8120,"argilet":8121,"latte":8122,"gaufrette":8123,"candle":8124,"limous":8125,"griotte":8126,"mirabelles":8127,"pago":8128,"system":8129,"##kapi":8130,"spiced":8131,"schmidt":8132,"lomo":8133,"bugles":8134,"argiletz":8135,"aro":8136,"tutti":8137,"with":8138,"##zero":8139,"##elord":8140,"saison":8141,"parod":8142,"protek":8143,"avent":8144,"tokapi":8145,"multiusage":8146,"mauve":8147,"marinade":8148,"aiguillette":8149,"dynam":8150,"eugne":8151,"##ophylle":8152,"siberica":8153,"dattes":8154,"coverm":8155,"certifi":8156,"lorientale":8157,"gayelord":8158,"guarana":8159,"ron":8160,"##uau":8161,"##ses":8162,"##olais":8163,"anim":8164,"colza":8165,"glow":8166,"reduit":8167,"apollo":8168,"dex":8169,"schoko":8170,"twix":8171,"propolis":8172,"tagada":8173,"embry":8174,"madeleine":8175,"phytos":8176,"multicolor":8177,"piquante":8178,"gastronomique":8179,"reconstitu":8180,"electrique":8181,"guimauve":8182,"abeilles":8183,"canalisations":8184,"krema":8185,"nautilus":8186,"eight":8187,"nonnettes":8188,"##jean":8189,"##intes":8190,"reparation":8191,"##opack":8192,"verquin":8193,"bonta":8194,"tartif":8195,"##onnay":8196,"myr":8197,"##ickers":8198,"snickers":8199,"opti":8200,"entretien":8201,"##ontaise":8202,"pimontaise":8203,"cajou":8204,"prunille":8205,"##atigue":8206,"sauternes":8207,"paraben":8208,"recoltes":8209,"die":8210,"fo":8211,"fte":8212,"fves":8213,"kat":8214,"mond":8215,"##eille":8216,"##yc":8217,"##frt":8218,"##cain":8219,"##dj":8220,"##ative":8221,"##olisse":8222,"choix":8223,"##nect":8224,"##ioni":8225,"##igment":8226,"##uete":8227,"##ited":8228,"casss":8229,"surgels":8230,"surpuissant":8231,"feuill":8232,"calam":8233,"mangues":8234,"##ylan":8235,"raison":8236,"##spir":8237,"cadbur":8238,"text":8239,"bbs":8240,"fouette":8241,"peles":8242,"mccain":8243,"##kkies":8244,"hawai":8245,"toulouse":8246,"mortadelle":8247,"embryolisse":8248,"cen":8249,"fol":8250,"omega":8251,"piles":8252,"pzero":8253,"sle":8254,"tam":8255,"##ouv":8256,"##chons":8257,"##ali":8258,"stvia":8259,"anne":8260,"prosec":8261,"saut":8262,"almond":8263,"##ido":8264,"##cohol":8265,"crem":8266,"maxwhite":8267,"delight":8268,"cerneaux":8269,"neg":8270,"isdin":8271,"loua":8272,"optim":8273,"magnsium":8274,"gratuite":8275,"holle":8276,"urban":8277,"plantation":8278,"##chocolat":8279,"schokobons":8280,"tartiflette":8281,"prosecco":8282,"court":8283,"frig":8284,"fall":8285,"garden":8286,"home":8287,"##nn":8288,"##pet":8289,"##erdam":8290,"##roirs":8291,"##ama":8292,"##osph":8293,"cologne":8294,"colona":8295,"verde":8296,"##lide":8297,"aprit":8298,"##rsll":8299,"teurg":8300,"savoureux":8301,"croquette":8302,"brekkies":8303,"piler":8304,"espagn":8305,"gazpacho":8306,"attra":8307,"modne":8308,"regal":8309,"artisanales":8310,"relais":8311,"embell":8312,"aubergine":8313,"prunier":8314,"envole":8315,"veuve":8316,"cadbury":8317,"teurgoule":8318,"are":8319,"bomb":8320,"meu":8321,"##zel":8322,"chap":8323,"saug":8324,"clav":8325,"comtes":8326,"leerdam":8327,"compet":8328,"nutr":8329,"calv":8330,"goud":8331,"faj":8332,"dose":8333,"naturaline":8334,"ceylan":8335,"cuivr":8336,"farcis":8337,"##fraise":8338,"divina":8339,"collagne":8340,"betterave":8341,"patelire":8342,"napolit":8343,"campagnarde":8344,"ditalia":8345,"cue":8346,"lister":8347,"nr":8348,"sush":8349,"##uie":8350,"##yo":8351,"##den":8352,"##auff":8353,"alcohol":8354,"connt":8355,"##andais":8356,"##opp":8357,"cafes":8358,"brocel":8359,"match":8360,"grants":8361,"acm":8362,"andouille":8363,"dauphin":8364,"bleuet":8365,"##ndm":8366,"revolution":8367,"semi":8368,"onctueuse":8369,"botanic":8370,"flammekueche":8371,"apresshampooing":8372,"conntable":8373,"cres":8374,"mres":8375,"rect":8376,"racti":8377,"##filler":8378,"##hm":8379,"##oria":8380,"##aline":8381,"bif":8382,"clark":8383,"anticar":8384,"peach":8385,"pearl":8386,"##oustic":8387,"claircissant":8388,"renv":8389,"dcoupe":8390,"groseille":8391,"sousv":8392,"anatomique":8393,"##poisson":8394,"calvados":8395,"listerine":8396,"broceli":8397,"act":8398,"bress":8399,"dente":8400,"lux":8401,"last":8402,"rut":8403,"bientre":8404,"bru":8405,"##ologiques":8406,"griss":8407,"chatain":8408,"dolives":8409,"linguine":8410,"diots":8411,"jours":8412,"courbe":8413,"cider":8414,"cele":8415,"##grino":8416,"dabeille":8417,"bronzante":8418,"defender":8419,"charcutier":8420,"beyer":8421,"reparateur":8422,"beignets":8423,"egg":8424,"jul":8425,"mignon":8426,"pon":8427,"##lf":8428,"##tn":8429,"##dar":8430,"##arritz":8431,"biarritz":8432,"brite":8433,"labello":8434,"essentials":8435,"nez":8436,"tofu":8437,"moelleuse":8438,"valfleuri":8439,"##crb":8440,"headsh":8441,"conservation":8442,"##ontax":8443,"cristaline":8444,"techn":8445,"competition":8446,"rsi":8447,"voile":8448,"##yaki":8449,"##bu":8450,"##bb":8451,"##han":8452,"##je":8453,"##ones":8454,"exqu":8455,"chevel":8456,"boites":8457,"seconde":8458,"##biotique":8459,"damour":8460,"arginine":8461,"paysans":8462,"##colore":8463,"cereale":8464,"bali":8465,"bledilait":8466,"algotherm":8467,"nougatine":8468,"proglide":8469,"chlorophylle":8470,"parodontax":8471,"reconstituant":8472,"fiz":8473,"king":8474,"pelliculaire":8475,"##ssais":8476,"inables":8477,"##itement":8478,"caramels":8479,"fourrage":8480,"elphant":8481,"##angeaisons":8482,"traou":8483,"danjou":8484,"##rth":8485,"acoustic":8486,"assortiments":8487,"ecras":8488,"garde":8489,"capital":8490,"daut":8491,"sword":8492,"hypoallergniques":8493,"intenso":8494,"gaspacho":8495,"mijot":8496,"microondes":8497,"rivesal":8498,"lartois":8499,"broceliande":8500,"dit":8501,"jai":8502,"ra":8503,"rwl":8504,"vive":8505,"##yane":8506,"##dich":8507,"##action":8508,"##agu":8509,"algue":8510,"bouchon":8511,"##rst":8512,"##inest":8513,"##ibly":8514,"terroirs":8515,"matifiante":8516,"solinest":8517,"piet":8518,"milan":8519,"##aceur":8520,"daloe":8521,"skinactive":8522,"skinceutic":8523,"##crust":8524,"etoile":8525,"cappacc":8526,"entremets":8527,"zendium":8528,"evian":8529,"nidal":8530,"restruc":8531,"muff":8532,"mazet":8533,"stimul":8534,"leerdammer":8535,"skinceuticals":8536,"bch":8537,"nons":8538,"##nois":8539,"##com":8540,"##cab":8541,"##kar":8542,"##lear":8543,"biphase":8544,"##ago":8545,"inava":8546,"contre":8547,"desp":8548,"senior":8549,"dev":8550,"##angs":8551,"visibly":8552,"geant":8553,"garon":8554,"grandlait":8555,"dalo":8556,"lactes":8557,"phil":8558,"magnif":8559,"naturelles":8560,"texture":8561,"francaise":8562,"##vergn":8563,"grosses":8564,"cologiques":8565,"lapiculteur":8566,"universel":8567,"##uzu":8568,"fleurette":8569,"goudale":8570,"her":8571,"ries":8572,"vint":8573,"##mor":8574,"##ja":8575,"pick":8576,"vittel":8577,"nutrig":8578,"##ommeil":8579,"antist":8580,"sunny":8581,"indien":8582,"presss":8583,"batistou":8584,"berling":8585,"rigoni":8586,"cellular":8587,"lalo":8588,"tommee":8589,"muscadet":8590,"chicken":8591,"cannell":8592,"chardonnay":8593,"napolitain":8594,"vintage":8595,"aides":8596,"hiver":8597,"je":8598,"ody":8599,"tos":8600,"##pray":8601,"##eros":8602,"##atin":8603,"chteau":8604,"##roy":8605,"sak":8606,"##abs":8607,"marius":8608,"sole":8609,"##ogel":8610,"coups":8611,"couture":8612,"##ady":8613,"roquette":8614,"terra":8615,"papaye":8616,"rechargeable":8617,"##useau":8618,"cotton":8619,"presse":8620,"tippee":8621,"consomm":8622,"##udet":8623,"palmers":8624,"pepito":8625,"vivien":8626,"equitable":8627,"dargouges":8628,"lipstick":8629,"bistrot":8630,"scandale":8631,"giraudet":8632,"headshoulders":8633,"cappaccini":8634,"densit":8635,"fres":8636,"gs":8637,"gana":8638,"hd":8639,"hav":8640,"nood":8641,"os":8642,"oro":8643,"reun":8644,"yuzu":8645,"##form":8646,"##well":8647,"##kka":8648,"##orges":8649,"##umel":8650,"##ertz":8651,"plis":8652,"jambonneau":8653,"miels":8654,"aberl":8655,"dentaires":8656,"##ditif":8657,"cacah":8658,"maybeline":8659,"milumel":8660,"valle":8661,"kiri":8662,"plaisance":8663,"loriginale":8664,"striliss":8665,"macarons":8666,"dsinfectantes":8667,"langelys":8668,"naturactive":8669,"homard":8670,"encre":8671,"pellegrino":8672,"anticaries":8673,"odysse":8674,"reunion":8675,"arome":8676,"cmoi":8677,"was":8678,"zeste":8679,"##eaux":8680,"##so":8681,"##vive":8682,"##umatique":8683,"##ingerie":8684,"cach":8685,"cade":8686,"march":8687,"incolore":8688,"mais":8689,"antiirrit":8690,"##ider":8691,"##ellow":8692,"##ignier":8693,"poig":8694,"##ipid":8695,"infin":8696,"perl":8697,"charolais":8698,"aroma":8699,"andal":8700,"##icare":8701,"patates":8702,"skyr":8703,"mango":8704,"manche":8705,"cadelac":8706,"colorstay":8707,"complment":8708,"semic":8709,"dbit":8710,"glenfid":8711,"truffes":8712,"semipaisse":8713,"renew":8714,"protgelingerie":8715,"eclair":8716,"sushi":8717,"rivesaltes":8718,"buc":8719,"dap":8720,"dont":8721,"pignons":8722,"sommeil":8723,"vouv":8724,"##nier":8725,"##pas":8726,"##chen":8727,"laitue":8728,"##ermable":8729,"prosc":8730,"##andres":8731,"fabrication":8732,"granions":8733,"nutric":8734,"att":8735,"gnpi":8736,"brunette":8737,"turquoise":8738,"snacks":8739,"baygon":8740,"asiatique":8741,"##olliet":8742,"absorbant":8743,"friture":8744,"chalotes":8745,"airwaves":8746,"brewdog":8747,"buns":8748,"azzurra":8749,"##vergnate":8750,"aberlour":8751,"vouvray":8752,"doignons":8753,"folliet":8754,"oat":8755,"pell":8756,"sleeve":8757,"ttine":8758,"##nam":8759,"##zar":8760,"##zona":8761,"##alli":8762,"aligot":8763,"##tragon":8764,"mim":8765,"flandres":8766,"infuse":8767,"coffee":8768,"premire":8769,"premiers":8770,"##ances":8771,"classico":8772,"tourang":8773,"arizona":8774,"viandepoisson":8775,"nail":8776,"relipid":8777,"ethiopie":8778,"daco":8779,"dilue":8780,"krisalp":8781,"select":8782,"embellisseur":8783,"ractives":8784,"cacahuete":8785,"dun":8786,"fmin":8787,"mt":8788,"out":8789,"wood":8790,"xtreme":8791,"yellow":8792,"##bro":8793,"##oun":8794,"##ren":8795,"##orsi":8796,"##eler":8797,"##ria":8798,"sop":8799,"mouches":8800,"engl":8801,"cordons":8802,"##ctor":8803,"additif":8804,"vivre":8805,"vileda":8806,"lartigue":8807,"montorsi":8808,"finesse":8809,"guill":8810,"naturanove":8811,"touraine":8812,"paul":8813,"dalcool":8814,"polyn":8815,"paisseurs":8816,"rondelles":8817,"##fleurs":8818,"chalote":8819,"surgeles":8820,"ourson":8821,"mystre":8822,"antioxydant":8823,"covermark":8824,"scandaleyes":8825,"tourangelle":8826,"bello":8827,"rangs":8828,"vale":8829,"##nuts":8830,"##yse":8831,"##rol":8832,"##mis":8833,"##mire":8834,"##zo":8835,"##ann":8836,"##isti":8837,"##aune":8838,"bicrb":8839,"##icure":8840,"##acter":8841,"##issa":8842,"anth":8843,"lile":8844,"##ardi":8845,"##odoses":8846,"artichauts":8847,"galet":8848,"united":8849,"maxim":8850,"scul":8851,"scents":8852,"surgele":8853,"toile":8854,"ppins":8855,"pralins":8856,"creamy":8857,"simon":8858,"smoky":8859,"rustique":8860,"crottin":8861,"silhouette":8862,"armatis":8863,"nids":8864,"branches":8865,"bridelice":8866,"frangipane":8867,"chimique":8868,"women":8869,"sgluten":8870,"by":8871,"bis":8872,"deux":8873,"mort":8874,"niss":8875,"ole":8876,"ponges":8877,"ville":8878,"##ya":8879,"##erre":8880,"##tey":8881,"##eta":8882,"##ament":8883,"##aun":8884,"crue":8885,"cars":8886,"maur":8887,"shot":8888,"gla":8889,"rouille":8890,"##ention":8891,"dorig":8892,"creation":8893,"calcaire":8894,"culinaires":8895,"##chips":8896,"copeaux":8897,"eminc":8898,"complexe":8899,"marocaine":8900,"ecocert":8901,"brushing":8902,"walker":8903,"pneumatique":8904,"bchamel":8905,"riesling":8906,"glenfiddich":8907,"polynsie":8908,"centif":8909,"holl":8910,"let":8911,"wars":8912,"##ln":8913,"##sch":8914,"##gienne":8915,"##urine":8916,"chv":8917,"sabar":8918,"##ulsion":8919,"cafine":8920,"arde":8921,"yaos":8922,"abtey":8923,"teneur":8924,"epi":8925,"tropicale":8926,"johnnie":8927,"antidm":8928,"machine":8929,"tatt":8930,"akile":8931,"conditioner":8932,"anglaise":8933,"textiles":8934,"rectang":8935,"grissini":8936,"chevelu":8937,"centifolia":8938,"sabarot":8939,"fido":8940,"isl":8941,"joy":8942,"mure":8943,"slip":8944,"vap":8945,"##rume":8946,"##more":8947,"##hli":8948,"##zione":8949,"##anis":8950,"##eres":8951,"##oman":8952,"crout":8953,"bloch":8954,"##agere":8955,"##eucal":8956,"##oplast":8957,"chev":8958,"brillant":8959,"bleus":8960,"rhne":8961,"volailles":8962,"crousty":8963,"marmite":8964,"rochef":8965,"pression":8966,"bigar":8967,"chiffon":8968,"##rapie":8969,"bouchre":8970,"ideal":8971,"bnnuts":8972,"diamond":8973,"multivitamines":8974,"piper":8975,"brick":8976,"lasting":8977,"gil":8978,"loignon":8979,"museau":8980,"##tu":8981,"##sta":8982,"##hon":8983,"auvergne":8984,"suchard":8985,"card":8986,"coud":8987,"boe":8988,"pastel":8989,"##rits":8990,"georges":8991,"##aks":8992,"calif":8993,"baie":8994,"protgeslip":8995,"jeunes":8996,"clmentines":8997,"antidcolor":8998,"highland":8999,"madem":9000,"blanchissant":9001,"botanicals":9002,"ganache":9003,"english":9004,"nissin":9005,"##eucalyptus":9006,"jock":9007,"lon":9008,"vs":9009,"##nil":9010,"##pche":9011,"##champ":9012,"crust":9013,"##ulor":9014,"##ulture":9015,"petitdj":9016,"blediner":9017,"pointes":9018,"mov":9019,"seche":9020,"castel":9021,"schne":9022,"atlantique":9023,"aquat":9024,"nails":9025,"giff":9026,"lasagne":9027,"efficace":9028,"charculor":9029,"craquant":9030,"##banane":9031,"alsacienne":9032,"##gorie":9033,"lessentiel":9034,"arrang":9035,"hawaiian":9036,"saugella":9037,"claviere":9038,"nutrisant":9039,"fizzy":9040,"sculpt":9041,"cesar":9042,"cdrat":9043,"ever":9044,"iba":9045,"pes":9046,"wings":9047,"ye":9048,"##xy":9049,"##fis":9050,"##bell":9051,"##vire":9052,"##pot":9053,"##pierre":9054,"##inea":9055,"##issants":9056,"angel":9057,"inti":9058,"##tade":9059,"##terrain":9060,"prte":9061,"salted":9062,"##coat":9063,"##imo":9064,"maxwell":9065,"dentition":9066,"garnie":9067,"loue":9068,"camlia":9069,"##oulder":9070,"spaghett":9071,"bbq":9072,"interdentaires":9073,"quattro":9074,"##encyl":9075,"nasal":9076,"bressane":9077,"boehli":9078,"schneider":9079,"daff":9080,"lchalote":9081,"mets":9082,"motta":9083,"ping":9084,"##usta":9085,"marque":9086,"naturela":9087,"flakes":9088,"prv":9089,"##ticules":9090,"harissa":9091,"trav":9092,"dclat":9093,"ecsta":9094,"aromatique":9095,"traditions":9096,"catel":9097,"valley":9098,"princes":9099,"givre":9100,"foudre":9101,"##ontaine":9102,"retouche":9103,"asiat":9104,"##ulcorants":9105,"betteraves":9106,"trois":9107,"millsi":9108,"paradis":9109,"photoderm":9110,"autobronzant":9111,"dermatologique":9112,"antidcoloration":9113,"mademoiselle":9114,"ais":9115,"dip":9116,"khol":9117,"mog":9118,"rib":9119,"slips":9120,"tau":9121,"vn":9122,"##lules":9123,"##fact":9124,"##bier":9125,"##eng":9126,"##aler":9127,"chiv":9128,"chute":9129,"limes":9130,"libre":9131,"palet":9132,"##odose":9133,"##rata":9134,"colorista":9135,"moulage":9136,"espelette":9137,"muller":9138,"##tructeur":9139,"meo":9140,"patron":9141,"catgorie":9142,"nappy":9143,"cracks":9144,"pyram":9145,"dlicate":9146,"##diat":9147,"planters":9148,"printanire":9149,"gerlinea":9150,"##lgumes":9151,"myrte":9152,"cendre":9153,"tattoo":9154,"rochefontaine":9155,"petitdjeuner":9156,"chivas":9157,"gene":9158,"mit":9159,"ni":9160,"tic":9161,"##xt":9162,"##tire":9163,"##asseur":9164,"##rio":9165,"carai":9166,"desa":9167,"##oglules":9168,"##ligem":9169,"##change":9170,"flott":9171,"roux":9172,"cover":9173,"couv":9174,"antiode":9175,"antimouches":9176,"beghin":9177,"deg":9178,"##ints":9179,"salaison":9180,"##ipote":9181,"##ival":9182,"essuie":9183,"nutrie":9184,"surf":9185,"pintade":9186,"##moulade":9187,"##blanc":9188,"agrum":9189,"##owa":9190,"nourish":9191,"manoir":9192,"powder":9193,"nappes":9194,"syn":9195,"bldidej":9196,"dsincrust":9197,"mousseline":9198,"##ield":9199,"silver":9200,"diluer":9201,"##duction":9202,"serpill":9203,"chups":9204,"chupa":9205,"waxoil":9206,"languedoc":9207,"arkoglules":9208,"merveilleux":9209,"wonderf":9210,"dermophil":9211,"cannelloni":9212,"bes":9213,"dare":9214,"fal":9215,"kauff":9216,"rich":9217,"yet":9218,"##mans":9219,"##zle":9220,"##ensi":9221,"saurin":9222,"carry":9223,"confipote":9224,"brousse":9225,"bonnet":9226,"low":9227,"oranger":9228,"millet":9229,"aquas":9230,"tonifiant":9231,"dtacheur":9232,"lyc":9233,"croustip":9234,"fiber":9235,"appare":9236,"##ifruit":9237,"fauchon":9238,"pranarm":9239,"colombo":9240,"pancakes":9241,"fallot":9242,"nonsyst":9243,"consommation":9244,"havana":9245,"gilbert":9246,"kauffers":9247,"boc":9248,"belles":9249,"jowa":9250,"tac":9251,"##ira":9252,"##aille":9253,"##fo":9254,"##ball":9255,"##brac":9256,"##prem":9257,"##atint":9258,"laine":9259,"sulf":9260,"##issage":9261,"caille":9262,"##igor":9263,"shoulder":9264,"barrette":9265,"arth":9266,"amer":9267,"tomac":9268,"pochette":9269,"matines":9270,"mengu":9271,"delpierre":9272,"polaire":9273,"bolton":9274,"##clus":9275,"eleveurs":9276,"discret":9277,"correction":9278,"##forte":9279,"francfort":9280,"bacardi":9281,"affligem":9282,"savoyard":9283,"manufact":9284,"ancienne":9285,"537":9286,"538":9287,"539":9288,"566":9289,"577":9290,"555":9291,"544":9292,"588":9293,"599":9294,"633":9295,"611":9296,"600":9297,"626":9298,"627":9299,"625":9300,"624":9301,"628":9302,"629":9303,"635":9304,"634":9305,"616":9306,"617":9307,"615":9308,"614":9309,"618":9310,"619":9311,"606":9312,"607":9313,"605":9314,"604":9315,"608":9316,"609":9317,"636":9318,"637":9319,"638":9320,"639":9321,"666":9322,"677":9323,"655":9324,"644":9325,"688":9326,"699":9327,"733":9328,"711":9329,"700":9330,"726":9331,"727":9332,"725":9333,"724":9334,"728":9335,"729":9336,"735":9337,"734":9338,"716":9339,"717":9340,"715":9341,"714":9342,"718":9343,"719":9344,"706":9345,"707":9346,"705":9347,"704":9348,"708":9349,"709":9350,"736":9351,"737":9352,"738":9353,"739":9354,"766":9355,"777":9356,"755":9357,"744":9358,"788":9359,"799":9360,"833":9361,"811":9362,"800":9363,"826":9364,"827":9365,"825":9366,"824":9367,"828":9368,"829":9369,"835":9370,"834":9371,"816":9372,"817":9373,"815":9374,"814":9375,"818":9376,"819":9377,"806":9378,"807":9379,"805":9380,"804":9381,"808":9382,"809":9383,"836":9384,"837":9385,"838":9386,"839":9387,"866":9388,"877":9389,"855":9390,"844":9391,"888":9392,"899":9393,"933":9394,"911":9395,"900":9396,"926":9397,"927":9398,"925":9399,"924":9400,"928":9401,"929":9402,"935":9403,"934":9404,"916":9405,"917":9406,"915":9407,"914":9408,"918":9409,"919":9410,"906":9411,"907":9412,"905":9413,"904":9414,"908":9415,"909":9416,"936":9417,"937":9418,"938":9419,"939":9420,"966":9421,"977":9422,"955":9423,"944":9424,"988":9425,"999":9426,"bons":9427,"dog":9428,"vene":9429,"##ual":9430,"##yss":9431,"##magnac":9432,"##gin":9433,"##vo":9434,"##itact":9435,"lazar":9436,"##omat":9437,"mark":9438,"inspir":9439,"##izer":9440,"destop":9441,"1433":9442,"1411":9443,"1400":9444,"1426":9445,"1427":9446,"1425":9447,"1424":9448,"1428":9449,"1429":9450,"1435":9451,"1434":9452,"1416":9453,"1417":9454,"1415":9455,"1414":9456,"1418":9457,"1419":9458,"1406":9459,"1407":9460,"1405":9461,"1404":9462,"1408":9463,"1409":9464,"1436":9465,"1437":9466,"1438":9467,"1439":9468,"1466":9469,"1477":9470,"1455":9471,"1488":9472,"1499":9473,"1833":9474,"1811":9475,"1800":9476,"1826":9477,"1827":9478,"1825":9479,"1824":9480,"1828":9481,"1829":9482,"1835":9483,"1834":9484,"1816":9485,"1817":9486,"1815":9487,"1814":9488,"1818":9489,"1819":9490,"1806":9491,"1807":9492,"1805":9493,"1804":9494,"1808":9495,"1809":9496,"1836":9497,"1837":9498,"1838":9499,"1839":9500,"1866":9501,"1877":9502,"1855":9503,"1844":9504,"1899":9505,"1933":9506,"1911":9507,"1900":9508,"1926":9509,"1927":9510,"1925":9511,"1924":9512,"1928":9513,"1929":9514,"1935":9515,"1934":9516,"1916":9517,"1917":9518,"1915":9519,"1914":9520,"1918":9521,"1919":9522,"1906":9523,"1907":9524,"1905":9525,"1904":9526,"1908":9527,"1909":9528,"1936":9529,"1937":9530,"1938":9531,"1939":9532,"1966":9533,"1977":9534,"1955":9535,"1944":9536,"1988":9537,"2433":9538,"2411":9539,"2400":9540,"2426":9541,"2427":9542,"2425":9543,"2424":9544,"2428":9545,"2429":9546,"2435":9547,"2434":9548,"2416":9549,"2417":9550,"2415":9551,"2414":9552,"2418":9553,"2419":9554,"2406":9555,"2407":9556,"2405":9557,"2404":9558,"2408":9559,"2409":9560,"2436":9561,"2437":9562,"2438":9563,"2439":9564,"2466":9565,"2477":9566,"2455":9567,"2488":9568,"2499":9569,"2833":9570,"2811":9571,"2800":9572,"2826":9573,"2827":9574,"2825":9575,"2824":9576,"2828":9577,"2829":9578,"2835":9579,"2834":9580,"2816":9581,"2817":9582,"2815":9583,"2814":9584,"2818":9585,"2819":9586,"2806":9587,"2807":9588,"2805":9589,"2804":9590,"2808":9591,"2809":9592,"2836":9593,"2837":9594,"2838":9595,"2839":9596,"2866":9597,"2877":9598,"2855":9599,"2844":9600,"2899":9601,"2933":9602,"2911":9603,"2900":9604,"2926":9605,"2927":9606,"2925":9607,"2924":9608,"2928":9609,"2929":9610,"2935":9611,"2934":9612,"2916":9613,"2917":9614,"2915":9615,"2914":9616,"2918":9617,"2919":9618,"2906":9619,"2907":9620,"2905":9621,"2904":9622,"2908":9623,"2909":9624,"2936":9625,"2937":9626,"2938":9627,"2939":9628,"2966":9629,"2977":9630,"2955":9631,"2944":9632,"2988":9633,"3433":9634,"3411":9635,"3400":9636,"3426":9637,"3427":9638,"3425":9639,"3424":9640,"3428":9641,"3429":9642,"3435":9643,"3434":9644,"3416":9645,"3417":9646,"3415":9647,"3414":9648,"3418":9649,"3419":9650,"3406":9651,"3407":9652,"3405":9653,"3404":9654,"3408":9655,"3409":9656,"3436":9657,"3437":9658,"3438":9659,"3439":9660,"3466":9661,"3477":9662,"3455":9663,"3488":9664,"3499":9665,"3833":9666,"3811":9667,"3800":9668,"3826":9669,"3827":9670,"3825":9671,"3824":9672,"3828":9673,"3829":9674,"3835":9675,"3834":9676,"3816":9677,"3817":9678,"3815":9679,"3814":9680,"3818":9681,"3819":9682,"3806":9683,"3807":9684,"3805":9685,"3804":9686,"3808":9687,"3809":9688,"3836":9689,"3837":9690,"3838":9691,"3839":9692,"3866":9693,"3877":9694,"3855":9695,"3844":9696,"3899":9697,"3933":9698,"3911":9699,"3900":9700,"3926":9701,"3927":9702,"3925":9703,"3924":9704,"3928":9705,"3929":9706,"3935":9707,"3934":9708,"3916":9709,"3917":9710,"3915":9711,"3914":9712,"3918":9713,"3919":9714,"3906":9715,"3907":9716,"3905":9717,"3904":9718,"3908":9719,"3909":9720,"3936":9721,"3937":9722,"3938":9723,"3939":9724,"3966":9725,"3977":9726,"3955":9727,"3944":9728,"3988":9729,"4433":9730,"4411":9731,"4400":9732,"4426":9733,"4427":9734,"4425":9735,"4424":9736,"4428":9737,"4429":9738,"4435":9739,"4434":9740,"4416":9741,"4417":9742,"4415":9743,"4414":9744,"4418":9745,"4419":9746,"4406":9747,"4407":9748,"4405":9749,"4404":9750,"4408":9751,"4409":9752,"4436":9753,"4437":9754,"4438":9755,"4439":9756,"4466":9757,"4477":9758,"4455":9759,"4488":9760,"4499":9761,"4833":9762,"4811":9763,"4800":9764,"4826":9765,"4827":9766,"4825":9767,"4824":9768,"4828":9769,"4829":9770,"4835":9771,"4834":9772,"4816":9773,"4817":9774,"4815":9775,"4814":9776,"4818":9777,"4819":9778,"4806":9779,"4807":9780,"4805":9781,"4804":9782,"4808":9783,"4809":9784,"4836":9785,"4837":9786,"4838":9787,"4839":9788,"4866":9789,"4877":9790,"4855":9791,"4844":9792,"4899":9793,"4933":9794,"4911":9795,"4900":9796,"4926":9797,"4927":9798,"4925":9799,"4924":9800,"4928":9801,"4929":9802,"4935":9803,"4934":9804,"4916":9805,"4917":9806,"4915":9807,"4914":9808,"4918":9809,"4919":9810,"4906":9811,"4907":9812,"4905":9813,"4904":9814,"4908":9815,"4909":9816,"4936":9817,"4937":9818,"4938":9819,"4939":9820,"4966":9821,"4977":9822,"4955":9823,"4944":9824,"4988":9825,"1533":9826,"1511":9827,"1500":9828,"1526":9829,"1527":9830,"1525":9831,"1524":9832,"1528":9833,"1529":9834,"1535":9835,"1534":9836,"1516":9837,"1517":9838,"1515":9839,"1514":9840,"1518":9841,"1519":9842,"1506":9843,"1507":9844,"1505":9845,"1504":9846,"1508":9847,"1509":9848,"1536":9849,"1537":9850,"1538":9851,"1539":9852,"1566":9853,"1577":9854,"1544":9855,"1588":9856,"1599":9857,"2533":9858,"2511":9859,"2500":9860,"2526":9861,"2527":9862,"2525":9863,"2524":9864,"2528":9865,"2529":9866,"2535":9867,"2534":9868,"2516":9869,"2517":9870,"2515":9871,"2514":9872,"2518":9873,"2519":9874,"2506":9875,"2507":9876,"2505":9877,"2504":9878,"2508":9879,"2509":9880,"2536":9881,"2537":9882,"2538":9883,"2539":9884,"2566":9885,"2577":9886,"2544":9887,"2588":9888,"2599":9889,"3533":9890,"3511":9891,"3500":9892,"3526":9893,"3527":9894,"3525":9895,"3524":9896,"3528":9897,"3529":9898,"3535":9899,"3534":9900,"3516":9901,"3517":9902,"3515":9903,"3514":9904,"3518":9905,"3519":9906,"3506":9907,"3507":9908,"3505":9909,"3504":9910,"3508":9911,"3509":9912,"3536":9913,"3537":9914,"3538":9915,"3539":9916,"3566":9917,"3577":9918,"3544":9919,"3588":9920,"3599":9921,"4533":9922,"4511":9923,"4500":9924,"4526":9925,"4527":9926,"4525":9927,"4524":9928,"4528":9929,"4529":9930,"4535":9931,"4534":9932,"4516":9933,"4517":9934,"4515":9935,"4514":9936,"4518":9937,"4519":9938,"4506":9939,"4507":9940,"4505":9941,"4504":9942,"4508":9943,"4509":9944,"4536":9945,"4537":9946,"4538":9947,"4539":9948,"4566":9949,"4577":9950,"4544":9951,"4588":9952,"4599":9953,"1733":9954,"1711":9955,"1700":9956,"1726":9957,"1727":9958,"1725":9959,"1724":9960,"1728":9961,"1729":9962,"1735":9963,"1734":9964,"1716":9965,"1717":9966,"1715":9967,"1714":9968,"1718":9969,"1719":9970,"1706":9971,"1707":9972,"1705":9973,"1704":9974,"1708":9975,"1709":9976,"1736":9977,"1737":9978,"1738":9979,"1739":9980,"1766":9981,"1755":9982,"1744":9983,"1788":9984,"1799":9985,"2733":9986,"2711":9987,"2700":9988,"2726":9989,"2727":9990,"2725":9991,"2724":9992,"2728":9993,"2729":9994,"2735":9995,"2734":9996,"2716":9997,"2717":9998,"2715":9999,"2714":10000,"2718":10001,"2719":10002,"2706":10003,"2707":10004,"2705":10005,"2704":10006,"2708":10007,"2709":10008,"2736":10009,"2737":10010,"2738":10011,"2739":10012,"2766":10013,"2755":10014,"2744":10015,"2788":10016,"2799":10017,"3733":10018,"3711":10019,"3700":10020,"3726":10021,"3727":10022,"3725":10023,"3724":10024,"3728":10025,"3729":10026,"3735":10027,"3734":10028,"3716":10029,"3717":10030,"3715":10031,"3714":10032,"3718":10033,"3719":10034,"3706":10035,"3707":10036,"3705":10037,"3704":10038,"3708":10039,"3709":10040,"3736":10041,"3737":10042,"3738":10043,"3739":10044,"3766":10045,"3755":10046,"3744":10047,"3788":10048,"3799":10049,"4733":10050,"4711":10051,"4700":10052,"4726":10053,"4727":10054,"4725":10055,"4724":10056,"4728":10057,"4729":10058,"4735":10059,"4734":10060,"4716":10061,"4717":10062,"4715":10063,"4714":10064,"4718":10065,"4719":10066,"4706":10067,"4707":10068,"4705":10069,"4704":10070,"4708":10071,"4709":10072,"4736":10073,"4737":10074,"4738":10075,"4739":10076,"4766":10077,"4755":10078,"4744":10079,"4788":10080,"4799":10081,"abims":10082,"elite":10083,"fonds":10084,"seven":10085,"1633":10086,"1611":10087,"1600":10088,"1626":10089,"1627":10090,"1625":10091,"1624":10092,"1628":10093,"1629":10094,"1635":10095,"1634":10096,"1616":10097,"1617":10098,"1615":10099,"1614":10100,"1618":10101,"1619":10102,"1606":10103,"1607":10104,"1605":10105,"1604":10106,"1608":10107,"1609":10108,"1636":10109,"1637":10110,"1638":10111,"1639":10112,"1677":10113,"1655":10114,"1644":10115,"1688":10116,"1699":10117,"2633":10118,"2611":10119,"2600":10120,"2626":10121,"2627":10122,"2625":10123,"2624":10124,"2628":10125,"2629":10126,"2635":10127,"2634":10128,"2616":10129,"2617":10130,"2615":10131,"2614":10132,"2618":10133,"2619":10134,"2606":10135,"2607":10136,"2605":10137,"2604":10138,"2608":10139,"2609":10140,"2636":10141,"2637":10142,"2638":10143,"2639":10144,"2677":10145,"2655":10146,"2644":10147,"2688":10148,"2699":10149,"3633":10150,"3611":10151,"3600":10152,"3626":10153,"3627":10154,"3625":10155,"3624":10156,"3628":10157,"3629":10158,"3635":10159,"3634":10160,"3616":10161,"3617":10162,"3615":10163,"3614":10164,"3618":10165,"3619":10166,"3606":10167,"3607":10168,"3605":10169,"3604":10170,"3608":10171,"3609":10172,"3636":10173,"3637":10174,"3638":10175,"3639":10176,"3677":10177,"3655":10178,"3644":10179,"3688":10180,"3699":10181,"4633":10182,"4611":10183,"4600":10184,"4626":10185,"4627":10186,"4625":10187,"4624":10188,"4628":10189,"4629":10190,"4635":10191,"4634":10192,"4616":10193,"4617":10194,"4615":10195,"4614":10196,"4618":10197,"4619":10198,"4606":10199,"4607":10200,"4605":10201,"4604":10202,"4608":10203,"4609":10204,"4636":10205,"4637":10206,"4638":10207,"4639":10208,"4677":10209,"4655":10210,"4644":10211,"4688":10212,"4699":10213,"papa":10214,"1233":10215,"1211":10216,"1200":10217,"1226":10218,"1227":10219,"1225":10220,"1224":10221,"1228":10222,"1229":10223,"1235":10224,"1234":10225,"1216":10226,"1217":10227,"1215":10228,"1214":10229,"1218":10230,"1219":10231,"1206":10232,"1207":10233,"1205":10234,"1204":10235,"1208":10236,"1209":10237,"1236":10238,"1237":10239,"1238":10240,"1239":10241,"2233":10242,"2211":10243,"2200":10244,"2226":10245,"2227":10246,"2225":10247,"2224":10248,"2228":10249,"2229":10250,"2235":10251,"2234":10252,"2216":10253,"2217":10254,"2215":10255,"2214":10256,"2218":10257,"2219":10258,"2206":10259,"2207":10260,"2205":10261,"2204":10262,"2208":10263,"2209":10264,"2236":10265,"2237":10266,"2238":10267,"2239":10268,"3233":10269,"3211":10270,"3200":10271,"3226":10272,"3227":10273,"3225":10274,"3224":10275,"3228":10276,"3229":10277,"3235":10278,"3234":10279,"3216":10280,"3217":10281,"3215":10282,"3214":10283,"3218":10284,"3219":10285,"3206":10286,"3207":10287,"3205":10288,"3204":10289,"3208":10290,"3209":10291,"3236":10292,"3237":10293,"3238":10294,"3239":10295,"4233":10296,"4211":10297,"4200":10298,"4226":10299,"4227":10300,"4225":10301,"4224":10302,"4228":10303,"4229":10304,"4235":10305,"4234":10306,"4216":10307,"4217":10308,"4215":10309,"4214":10310,"4218":10311,"4219":10312,"4206":10313,"4207":10314,"4205":10315,"4204":10316,"4208":10317,"4209":10318,"4236":10319,"4237":10320,"4238":10321,"4239":10322,"5233":10323,"5211":10324,"5200":10325,"5226":10326,"5227":10327,"5225":10328,"5224":10329,"5228":10330,"5229":10331,"5235":10332,"5234":10333,"5216":10334,"5217":10335,"5215":10336,"5214":10337,"5218":10338,"5219":10339,"5206":10340,"5207":10341,"5205":10342,"5204":10343,"5208":10344,"5209":10345,"5236":10346,"5237":10347,"5238":10348,"5239":10349,"herbatint":10350,"diot":10351,"epitact":10352,"1033":10353,"1011":10354,"1026":10355,"1027":10356,"1025":10357,"1024":10358,"1028":10359,"1029":10360,"1035":10361,"1034":10362,"1016":10363,"1017":10364,"1015":10365,"1014":10366,"1018":10367,"1019":10368,"1036":10369,"1037":10370,"1038":10371,"1039":10372,"2033":10373,"2011":10374,"2026":10375,"2027":10376,"2025":10377,"2024":10378,"2028":10379,"2029":10380,"2035":10381,"2034":10382,"2016":10383,"2017":10384,"2015":10385,"2014":10386,"2018":10387,"2019":10388,"2036":10389,"2037":10390,"2038":10391,"2039":10392,"3033":10393,"3011":10394,"3026":10395,"3027":10396,"3025":10397,"3024":10398,"3028":10399,"3029":10400,"3035":10401,"3034":10402,"3016":10403,"3017":10404,"3015":10405,"3014":10406,"3018":10407,"3019":10408,"3036":10409,"3037":10410,"3038":10411,"3039":10412,"4033":10413,"4011":10414,"4026":10415,"4027":10416,"4025":10417,"4024":10418,"4028":10419,"4029":10420,"4035":10421,"4034":10422,"4016":10423,"4017":10424,"4015":10425,"4014":10426,"4018":10427,"4019":10428,"4036":10429,"4037":10430,"4038":10431,"4039":10432,"5033":10433,"5011":10434,"5026":10435,"5027":10436,"5025":10437,"5024":10438,"5028":10439,"5029":10440,"5035":10441,"5034":10442,"5016":10443,"5017":10444,"5015":10445,"5014":10446,"5018":10447,"5019":10448,"5036":10449,"5037":10450,"5038":10451,"5039":10452,"1133":10453,"1100":10454,"1126":10455,"1127":10456,"1125":10457,"1124":10458,"1128":10459,"1129":10460,"1135":10461,"1134":10462,"1106":10463,"1107":10464,"1105":10465,"1104":10466,"1108":10467,"1109":10468,"1136":10469,"1137":10470,"1138":10471,"1139":10472,"2133":10473,"2100":10474,"2126":10475,"2127":10476,"2125":10477,"2124":10478,"2128":10479,"2129":10480,"2135":10481,"2134":10482,"2106":10483,"2107":10484,"2105":10485,"2104":10486,"2108":10487,"2109":10488,"2136":10489,"2137":10490,"2138":10491,"2139":10492,"3133":10493,"3100":10494,"3126":10495,"3127":10496,"3125":10497,"3124":10498,"3128":10499,"3129":10500,"3135":10501,"3134":10502,"3106":10503,"3107":10504,"3105":10505,"3104":10506,"3108":10507,"3109":10508,"3136":10509,"3137":10510,"3138":10511,"3139":10512,"4133":10513,"4100":10514,"4126":10515,"4127":10516,"4125":10517,"4124":10518,"4128":10519,"4129":10520,"4135":10521,"4134":10522,"4106":10523,"4107":10524,"4105":10525,"4104":10526,"4108":10527,"4109":10528,"4136":10529,"4137":10530,"4138":10531,"4139":10532,"5133":10533,"5100":10534,"5126":10535,"5127":10536,"5125":10537,"5124":10538,"5128":10539,"5129":10540,"5135":10541,"5134":10542,"5106":10543,"5107":10544,"5105":10545,"5104":10546,"5108":10547,"5109":10548,"5136":10549,"5137":10550,"5138":10551,"5139":10552,"1311":10553,"1300":10554,"1326":10555,"1327":10556,"1325":10557,"1324":10558,"1328":10559,"1329":10560,"1316":10561,"1317":10562,"1315":10563,"1314":10564,"1318":10565,"1319":10566,"1306":10567,"1307":10568,"1305":10569,"1304":10570,"1308":10571,"1309":10572,"2311":10573,"2300":10574,"2326":10575,"2327":10576,"2325":10577,"2324":10578,"2328":10579,"2329":10580,"2316":10581,"2317":10582,"2315":10583,"2314":10584,"2318":10585,"2319":10586,"2306":10587,"2307":10588,"2305":10589,"2304":10590,"2308":10591,"2309":10592,"3311":10593,"3300":10594,"3326":10595,"3327":10596,"3325":10597,"3324":10598,"3328":10599,"3329":10600,"3316":10601,"3317":10602,"3315":10603,"3314":10604,"3318":10605,"3319":10606,"3306":10607,"3307":10608,"3305":10609,"3304":10610,"3308":10611,"3309":10612,"4311":10613,"4300":10614,"4326":10615,"4327":10616,"4325":10617,"4324":10618,"4328":10619,"4329":10620,"4316":10621,"4317":10622,"4315":10623,"4314":10624,"4318":10625,"4319":10626,"4306":10627,"4307":10628,"4305":10629,"4304":10630,"4308":10631,"4309":10632,"5311":10633,"5300":10634,"5326":10635,"5327":10636,"5325":10637,"5324":10638,"5328":10639,"5329":10640,"5316":10641,"5317":10642,"5315":10643,"5314":10644,"5318":10645,"5319":10646,"5306":10647,"5307":10648,"5305":10649,"5304":10650,"5308":10651,"5309":10652,"croustillante":10653,"coquille":10654,"cuivre":10655,"palmier":10656,"found":10657,"urgo":10658,"dnoyauts":10659,"elastique":10660,"charenta":10661,"equateur":10662,"idal":10663,"##green":10664,"forez":10665,"calamars":10666,"frigo":10667,"despagne":10668,"menguys":10669,"lazartigue":10670,"dint":10671,"echalote":10672,"fat":10673,"gins":10674,"mine":10675,"tent":10676,"vos":10677,"zip":10678,"##bod":10679,"##dm":10680,"##erades":10681,"##cep":10682,"cache":10683,"colada":10684,"mimo":10685,"flers":10686,"##etto":10687,"##estos":10688,"##law":10689,"fior":10690,"moines":10691,"##erva":10692,"mulino":10693,"##biotic":10694,"skyn":10695,"dauph":10696,"blondes":10697,"moyenne":10698,"coquy":10699,"swania":10700,"antibacter":10701,"giro":10702,"bull":10703,"chouxfleurs":10704,"ecolabel":10705,"braserades":10706,"sonicare":10707,"othrfl":10708,"##rentissage":10709,"fruiss":10710,"ibrique":10711,"pellic":10712,"mimolette":10713,"othrflng":10714,"feta":10715,"molli":10716,"size":10717,"##yre":10718,"##yel":10719,"##yron":10720,"##boy":10721,"##elios":10722,"##sio":10723,"minc":10724,"cafs":10725,"jusqu":10726,"monin":10727,"transl":10728,"grillet":10729,"##iumcontact":10730,"puree":10731,"feutre":10732,"pilons":10733,"merl":10734,"larmagnac":10735,"##elinge":10736,"atta":10737,"huil":10738,"protines":10739,"daqu":10740,"domestos":10741,"anticell":10742,"compresses":10743,"relaxant":10744,"ivory":10745,"croissants":10746,"contiprem":10747,"chamallows":10748,"antifatigue":10749,"annayak":10750,"rissoles":10751,"apritives":10752,"milanaise":10753,"##cabche":10754,"pestic":10755,"ginseng":10756,"transluc":10757,"contipremiumcontact":10758,"dri":10759,"pier":10760,"vet":10761,"##abi":10762,"##usson":10763,"##ned":10764,"##neuil":10765,"pouss":10766,"spar":10767,"auto":10768,"paisses":10769,"real":10770,"rechange":10771,"mlisse":10772,"crealine":10773,"adam":10774,"demil":10775,"lieu":10776,"##gian":10777,"thermis":10778,"neutral":10779,"dcors":10780,"vritables":10781,"vitality":10782,"donuts":10783,"continus":10784,"daubergines":10785,"mexicain":10786,"quilibr":10787,"dintrieur":10788,"anticellulite":10789,"ace":10790,"bactri":10791,"grs":10792,"mutti":10793,"vag":10794,"##xtr":10795,"##line":10796,"##cre":10797,"##eslaw":10798,"##chat":10799,"##olf":10800,"chti":10801,"stjacques":10802,"frutti":10803,"verneuil":10804,"##idou":10805,"confite":10806,"lavable":10807,"canaill":10808,"##ctrn":10809,"moret":10810,"unst":10811,"adap":10812,"traire":10813,"persille":10814,"finest":10815,"indienne":10816,"##ollution":10817,"rimnu":10818,"maure":10819,"tasse":10820,"extrafin":10821,"multicrales":10822,"bretzel":10823,"manual":10824,"summer":10825,"intimes":10826,"daffinage":10827,"taupe":10828,"canaillou":10829,"que":10830,"tquila":10831,"##uh":10832,"##iat":10833,"##cn":10834,"##mala":10835,"##vence":10836,"##pair":10837,"sautes":10838,"connais":10839,"coleslaw":10840,"limou":10841,"flav":10842,"cozy":10843,"couvert":10844,"bolets":10845,"canettes":10846,"rok":10847,"vitaf":10848,"mors":10849,"nutre":10850,"papas":10851,"chartre":10852,"##pha":10853,"feyel":10854,"effiles":10855,"cassants":10856,"drama":10857,"raviolis":10858,"goutte":10859,"giras":10860,"physiol":10861,"canton":10862,"##confort":10863,"bahia":10864,"serpent":10865,"##gorry":10866,"clairette":10867,"biodgradables":10868,"grignottes":10869,"prfrence":10870,"miguelgorry":10871,"cueill":10872,"nroli":10873,"jaime":10874,"holland":10875,"carryb":10876,"unstopp":10877,"aeros":10878,"isio":10879,"lvre":10880,"lash":10881,"mille":10882,"mches":10883,"##pert":10884,"##lea":10885,"chant":10886,"##ulous":10887,"##utto":10888,"commer":10889,"artique":10890,"parfumes":10891,"picard":10892,"pochon":10893,"first":10894,"unid":10895,"moulins":10896,"agar":10897,"pilon":10898,"figu":10899,"polident":10900,"swim":10901,"bruns":10902,"tikka":10903,"##actions":10904,"discip":10905,"disigny":10906,"##mpng":10907,"rigat":10908,"antibactriennes":10909,"epinard":10910,"daily":10911,"artist":10912,"hagendazs":10913,"ballotin":10914,"torrf":10915,"gommes":10916,"feuillatte":10917,"nutreov":10918,"aerosol":10919,"dens":10920,"genti":10921,"jules":10922,"lamel":10923,"pec":10924,"tric":10925,"##iante":10926,"##ctes":10927,"##hard":10928,"##olore":10929,"##quel":10930,"##oies":10931,"##igle":10932,"##igol":10933,"maro":10934,"proth":10935,"invit":10936,"##ultime":10937,"flux":10938,"apiculteur":10939,"##adou":10940,"basti":10941,"deliz":10942,"assorties":10943,"platin":10944,"longues":10945,"triang":10946,"antipo":10947,"difficile":10948,"renforce":10949,"kikk":10950,"gallo":10951,"sodalis":10952,"volumateur":10953,"baguettes":10954,"tetley":10955,"flottante":10956,"daregal":10957,"tomacouli":10958,"lamelles":10959,"invitation":10960,"kikkoman":10961,"lumin":10962,"nue":10963,"omb":10964,"##iet":10965,"##aka":10966,"##mas":10967,"##ilou":10968,"##ores":10969,"##oca":10970,"##letti":10971,"##neuve":10972,"propl":10973,"maigre":10974,"##rsisti":10975,"corvette":10976,"coloris":10977,"brles":10978,"juste":10979,"elast":10980,"maxfresh":10981,"garof":10982,"caprice":10983,"##ichoc":10984,"ortie":10985,"suncoat":10986,"manchons":10987,"macchi":10988,"resultime":10989,"fixodent":10990,"griottes":10991,"erhard":10992,"bandeau":10993,"tempe":10994,"catalan":10995,"pranarom":10996,"hyperpro":10997,"cigalou":10998,"cadeau":10999,"prosci":11000,"girofle":11001,"carryboo":11002,"garofalo":11003,"cin":11004,"il":11005,"nick":11006,"wet":11007,"zense":11008,"##iol":11009,"##mous":11010,"##ary":11011,"lagu":11012,"##oig":11013,"aude":11014,"carac":11015,"mouton":11016,"vergeoise":11017,"potagre":11018,"aperic":11019,"cram":11020,"lavand":11021,"roz":11022,"##ayes":11023,"savndm":11024,"##rites":11025,"nettoie":11026,"assain":11027,"##imal":11028,"loeuf":11029,"lovale":11030,"lobod":11031,"moroni":11032,"charrette":11033,"braz":11034,"dauge":11035,"loup":11036,"floor":11037,"davocat":11038,"alsacien":11039,"espagnol":11040,"celebrations":11041,"contrex":11042,"gsiers":11043,"villeneuve":11044,"antidmangeaisons":11045,"princesse":11046,"prosciutto":11047,"zensect":11048,"lobodis":11049,"567":11050,"565":11051,"564":11052,"568":11053,"569":11054,"575":11055,"574":11056,"578":11057,"579":11058,"554":11059,"558":11060,"559":11061,"548":11062,"549":11063,"589":11064,"667":11065,"665":11066,"664":11067,"668":11068,"669":11069,"675":11070,"674":11071,"678":11072,"679":11073,"654":11074,"658":11075,"659":11076,"648":11077,"649":11078,"689":11079,"767":11080,"765":11081,"764":11082,"768":11083,"769":11084,"775":11085,"774":11086,"778":11087,"779":11088,"754":11089,"758":11090,"759":11091,"748":11092,"749":11093,"789":11094,"867":11095,"865":11096,"864":11097,"868":11098,"869":11099,"875":11100,"874":11101,"878":11102,"879":11103,"854":11104,"858":11105,"859":11106,"848":11107,"849":11108,"889":11109,"967":11110,"965":11111,"964":11112,"968":11113,"969":11114,"975":11115,"974":11116,"978":11117,"979":11118,"954":11119,"958":11120,"959":11121,"948":11122,"949":11123,"989":11124,"fric":11125,"jen":11126,"kus":11127,"oap":11128,"oem":11129,"rmoulade":11130,"vic":11131,"##ek":11132,"##lou":11133,"##nites":11134,"##mmes":11135,"##vol":11136,"##onse":11137,"##eron":11138,"##cho":11139,"##ilong":11140,"##orre":11141,"biologiques":11142,"##ocation":11143,"biopha":11144,"##tess":11145,"##illed":11146,"carap":11147,"parti":11148,"reims":11149,"1467":11150,"1465":11151,"1464":11152,"1468":11153,"1469":11154,"1475":11155,"1474":11156,"1478":11157,"1479":11158,"1454":11159,"1458":11160,"1459":11161,"1489":11162,"1867":11163,"1865":11164,"1864":11165,"1868":11166,"1869":11167,"1875":11168,"1874":11169,"1878":11170,"1879":11171,"1854":11172,"1858":11173,"1859":11174,"1848":11175,"1849":11176,"1967":11177,"1965":11178,"1964":11179,"1968":11180,"1969":11181,"1975":11182,"1974":11183,"1978":11184,"1979":11185,"1954":11186,"1958":11187,"1959":11188,"1948":11189,"1949":11190,"1989":11191,"2467":11192,"2465":11193,"2464":11194,"2468":11195,"2469":11196,"2475":11197,"2474":11198,"2478":11199,"2479":11200,"2454":11201,"2458":11202,"2459":11203,"2489":11204,"2867":11205,"2865":11206,"2864":11207,"2868":11208,"2869":11209,"2875":11210,"2874":11211,"2878":11212,"2879":11213,"2854":11214,"2858":11215,"2859":11216,"2848":11217,"2849":11218,"2967":11219,"2965":11220,"2964":11221,"2968":11222,"2969":11223,"2975":11224,"2974":11225,"2978":11226,"2979":11227,"2954":11228,"2958":11229,"2959":11230,"2948":11231,"2949":11232,"2989":11233,"3467":11234,"3465":11235,"3464":11236,"3468":11237,"3469":11238,"3475":11239,"3474":11240,"3478":11241,"3479":11242,"3454":11243,"3458":11244,"3459":11245,"3489":11246,"3867":11247,"3865":11248,"3864":11249,"3868":11250,"3869":11251,"3875":11252,"3874":11253,"3878":11254,"3879":11255,"3854":11256,"3858":11257,"3859":11258,"3848":11259,"3849":11260,"3967":11261,"3965":11262,"3964":11263,"3968":11264,"3969":11265,"3975":11266,"3974":11267,"3978":11268,"3979":11269,"3954":11270,"3958":11271,"3959":11272,"3948":11273,"3949":11274,"3989":11275,"4467":11276,"4465":11277,"4464":11278,"4468":11279,"4469":11280,"4475":11281,"4474":11282,"4478":11283,"4479":11284,"4454":11285,"4458":11286,"4459":11287,"4489":11288,"4867":11289,"4865":11290,"4864":11291,"4868":11292,"4869":11293,"4875":11294,"4874":11295,"4878":11296,"4879":11297,"4854":11298,"4858":11299,"4859":11300,"4848":11301,"4849":11302,"4967":11303,"4965":11304,"4964":11305,"4968":11306,"4969":11307,"4975":11308,"4974":11309,"4978":11310,"4979":11311,"4954":11312,"4958":11313,"4959":11314,"4948":11315,"4949":11316,"4989":11317,"poids":11318,"1567":11319,"1565":11320,"1564":11321,"1568":11322,"1569":11323,"1575":11324,"1574":11325,"1578":11326,"1579":11327,"2567":11328,"2565":11329,"2564":11330,"2568":11331,"2569":11332,"2575":11333,"2574":11334,"2578":11335,"2579":11336,"3567":11337,"3565":11338,"3564":11339,"3568":11340,"3569":11341,"3575":11342,"3574":11343,"3578":11344,"3579":11345,"4567":11346,"4565":11347,"4564":11348,"4568":11349,"4569":11350,"4575":11351,"4574":11352,"4578":11353,"4579":11354,"1767":11355,"1765":11356,"1764":11357,"1768":11358,"1769":11359,"2767":11360,"2765":11361,"2764":11362,"2768":11363,"2769":11364,"3767":11365,"3765":11366,"3764":11367,"3768":11368,"3769":11369,"4767":11370,"4765":11371,"4764":11372,"4768":11373,"4769":11374,"scou":11375,"daniel":11376,"casson":11377,"##blnc":11378,"captain":11379,"protector":11380,"manos":11381,"drynites":11382,"optima":11383,"lovegreen":11384,"innov":11385,"alimentaires":11386,"viva":11387,"sublimes":11388,"juice":11389,"crudettes":11390,"prtran":11391,"tree":11392,"accessoires":11393,"savoyarde":11394,"paradise":11395,"gerlina":11396,"nourriture":11397,"croutons":11398,"piperade":11399,"cachemire":11400,"daquitaine":11401,"laguil":11402,"apericube":11403,"##imalaya":11404,"oemine":11405,"dulcorant":11406,"hamb":11407,"hip":11408,"lour":11409,"tid":11410,"##unes":11411,"##bk":11412,"##rp":11413,"##ponge":11414,"##prentissage":11415,"##tein":11416,"##olu":11417,"##seurs":11418,"##abre":11419,"sult":11420,"marilou":11421,"envie":11422,"arrab":11423,"deodorant":11424,"onion":11425,"seb":11426,"capri":11427,"##ocalcaire":11428,"cosmos":11429,"atoderm":11430,"tourtel":11431,"tartelette":11432,"kidz":11433,"correct":11434,"grosse":11435,"alovr":11436,"olocalcaire":11437,"retouch":11438,"ellevire":11439,"naturado":11440,"pimente":11441,"japonaises":11442,"condiment":11443,"dpoussirant":11444,"dapprentissage":11445,"couvrance":11446,"connaisseurs":11447,"kusmi":11448,"manosque":11449,"laguilhon":11450,"fve":11451,"lissante":11452,"##night":11453,"##fre":11454,"##lean":11455,"##iture":11456,"##rot":11457,"street":11458,"laitiers":11459,"##igencyl":11460,"angl":11461,"conomique":11462,"plax":11463,"clan":11464,"parquet":11465,"##rsp":11466,"amin":11467,"tartre":11468,"sensor":11469,"magiques":11470,"epaisse":11471,"myth":11472,"ecusson":11473,"effaceur":11474,"cidou":11475,"paup":11476,"viennoise":11477,"corsica":11478,"decolor":11479,"chauffe":11480,"papillote":11481,"enrobage":11482,"cellulaire":11483,"plaque":11484,"campagnard":11485,"metzger":11486,"dorigine":11487,"foundation":11488,"adapt":11489,"proplan":11490,"macchiato":11491,"savndmrsll":11492,"hambur":11493,"derc":11494,"ers":11495,"giv":11496,"mign":11497,"pina":11498,"wolf":11499,"##uest":11500,"##erel":11501,"##alin":11502,"##tesse":11503,"blnd":11504,"##ingo":11505,"andre":11506,"exclus":11507,"show":11508,"petitgas":11509,"verget":11510,"code":11511,"##ife":11512,"bonhe":11513,"purple":11514,"chaton":11515,"provocation":11516,"multivar":11517,"dcore":11518,"##ntl":11519,"theiss":11520,"##forth":11521,"musk":11522,"tonigencyl":11523,"gnoises":11524,"keratine":11525,"cupuau":11526,"lytess":11527,"irrsisti":11528,"radis":11529,"##ajal":11530,"guerande":11531,"partager":11532,"cuillre":11533,"multicolores":11534,"poignes":11535,"croustipate":11536,"jenlain":11537,"amincissant":11538,"dercos":11539,"aig":11540,"aire":11541,"cent":11542,"fes":11543,"kajal":11544,"mist":11545,"soiz":11546,"tin":11547,"tando":11548,"up":11549,"##uction":11550,"##bas":11551,"##bli":11552,"##wax":11553,"carie":11554,"spigol":11555,"##osensit":11556,"autre":11557,"connect":11558,"clin":11559,"parme":11560,"##ibier":11561,"##intense":11562,"hydr":11563,"adlie":11564,"grana":11565,"mulsion":11566,"tennesse":11567,"nuage":11568,"aroms":11569,"antitches":11570,"activilong":11571,"conserve":11572,"rik":11573,"lardche":11574,"embout":11575,"sublimateur":11576,"dlichoc":11577,"dairy":11578,"peeling":11579,"brocoli":11580,"mineral":11581,"miso":11582,"ensoleill":11583,"piccolinis":11584,"sleep":11585,"fminin":11586,"serpentini":11587,"iris":11588,"ja":11589,"kare":11590,"oils":11591,"pand":11592,"rivier":11593,"##belles":11594,"##sence":11595,"##rus":11596,"##gne":11597,"##amole":11598,"##ocar":11599,"##acienne":11600,"##acamole":11601,"glatine":11602,"round":11603,"colorvive":11604,"brit":11605,"crole":11606,"whit":11607,"abc":11608,"abat":11609,"tubs":11610,"##caramel":11611,"porcel":11612,"multipack":11613,"emulsion":11614,"agrume":11615,"fermage":11616,"premires":11617,"fete":11618,"##ossal":11619,"tropico":11620,"dermas":11621,"guacamole":11622,"paysannes":11623,"exotic":11624,"pelforth":11625,"##xpress":11626,"retour":11627,"elixirs":11628,"galler":11629,"ruche":11630,"dasperges":11631,"fragil":11632,"ecocontact":11633,"patchouli":11634,"eclaircissant":11635,"anthelios":11636,"asiatiques":11637,"gentiane":11638,"caractre":11639,"tandoori":11640,"karelea":11641,"finger":11642,"hoe":11643,"jan":11644,"sir":11645,"vir":11646,"##iyaki":11647,"##hp":11648,"##kat":11649,"##oro":11650,"##ocontact":11651,"##abar":11652,"mail":11653,"##sian":11654,"colossal":11655,"lipi":11656,"##ophe":11657,"##tao":11658,"##chante":11659,"bed":11660,"salt":11661,"taurine":11662,"quin":11663,"solar":11664,"delichoc":11665,"duopack":11666,"curl":11667,"agaune":11668,"pils":11669,"gousse":11670,"pataks":11671,"dermacl":11672,"dode":11673,"skincare":11674,"mesure":11675,"ptissire":11676,"radiat":11677,"rita":11678,"cicab":11679,"insectes":11680,"iller":11681,"chinois":11682,"chinoise":11683,"clovis":11684,"chaussures":11685,"festival":11686,"translucide":11687,"bastides":11688,"lipikar":11689,"dermaclay":11690,"dulcorants":11691,"fish":11692,"##bec":11693,"##mx":11694,"##mn":11695,"##gle":11696,"##enet":11697,"chapon":11698,"##omiques":11699,"carola":11700,"##odiane":11701,"##ubl":11702,"supr":11703,"tailles":11704,"teriyaki":11705,"savoure":11706,"fondament":11707,"dann":11708,"cask":11709,"##charge":11710,"##trou":11711,"charl":11712,"cruz":11713,"##ldog":11714,"feeling":11715,"campbell":11716,"caby":11717,"canderel":11718,"##dients":11719,"bulldog":11720,"langoust":11721,"enrobs":11722,"planta":11723,"hyaluronfiller":11724,"mijots":11725,"rvillon":11726,"##ridge":11727,"tisaniere":11728,"eggs":11729,"mimosa":11730,"##rspcl":11731,"dard":11732,"iod":11733,"noc":11734,"notes":11735,"pore":11736,"sce":11737,"taux":11738,"wrig":11739,"##dis":11740,"##miel":11741,"##itter":11742,"cage":11743,"carth":11744,"ligeoise":11745,"paiss":11746,"##atemala":11747,"plac":11748,"rousse":11749,"coupes":11750,"lgume":11751,"salon":11752,"fournil":11753,"michoko":11754,"mete":11755,"calme":11756,"guatemala":11757,"negra":11758,"##lsen":11759,"golfo":11760,"gaufre":11761,"coulissants":11762,"refresh":11763,"lyoph":11764,"rince":11765,"urinaire":11766,"contrle":11767,"bahlsen":11768,"rcbk":11769,"tatin":11770,"jameson":11771,"humide":11772,"ayam":11773,"chanvre":11774,"pietra":11775,"sopalin":11776,"besac":11777,"antibacterien":11778,"prtranch":11779,"anglais":11780,"598":11781,"698":11782,"798":11783,"898":11784,"998":11785,"bush":11786,"divers":11787,"gifr":11788,"hle":11789,"kal":11790,"mun":11791,"mda":11792,"meun":11793,"ors":11794,"orth":11795,"pra":11796,"push":11797,"wine":11798,"##liss":11799,"##pure":11800,"##ko":11801,"##anium":11802,"##oura":11803,"##rene":11804,"##ennais":11805,"chav":11806,"##omtre":11807,"crum":11808,"dough":11809,"inell":11810,"spr":11811,"verrines":11812,"potagere":11813,"1498":11814,"1898":11815,"2498":11816,"2898":11817,"3498":11818,"3898":11819,"4498":11820,"4898":11821,"arnaud":11822,"brus":11823,"prm":11824,"amricaine":11825,"fours":11826,"perig":11827,"panache":11828,"spcialits":11829,"##tonel":11830,"espagne":11831,"persavon":11832,"guy":11833,"tonifiante":11834,"keratin":11835,"briochettes":11836,"balls":11837,"lumine":11838,"dlicats":11839,"nergie":11840,"mditerranen":11841,"relaxing":11842,"relaxante":11843,"prosh":11844,"microondable":11845,"distill":11846,"moltonel":11847,"saladires":11848,"spirales":11849,"odeur":11850,"tsarine":11851,"plumeau":11852,"fajitas":11853,"attitude":11854,"pyramide":11855,"limoux":11856,"erstein":11857,"vergetures":11858,"radiatori":11859,"wrigley":11860,"gifrer":11861,"cec":11862,"euro":11863,"fest":11864,"fayes":11865,"hel":11866,"ler":11867,"nf":11868,"nus":11869,"zinc":11870,"##light":11871,"##fit":11872,"##bard":11873,"##zan":11874,"##ener":11875,"##tign":11876,"bib":11877,"chocolaterie":11878,"##iga":11879,"maist":11880,"sprits":11881,"##aique":11882,"collet":11883,"enri":11884,"sucrs":11885,"arte":11886,"brum":11887,"##ologie":11888,"brochet":11889,"##angue":11890,"creperie":11891,"maxis":11892,"##ploi":11893,"pilation":11894,"pata":11895,"##ensis":11896,"forma":11897,"dermosensit":11898,"damand":11899,"pulp":11900,"efficient":11901,"farcie":11902,"anticasse":11903,"##poulet":11904,"rduite":11905,"croustibat":11906,"ciro":11907,"rgnrante":11908,"lemploi":11909,"ocedar":11910,"aciduls":11911,"queue":11912,"molle":11913,"samoura":11914,"favre":11915,"christophe":11916,"dlicatesse":11917,"optipro":11918,"restructur":11919,"travaux":11920,"couverts":11921,"unstoppables":11922,"wolfberger":11923,"gomme":11924,"lame":11925,"rn":11926,"rot":11927,"roth":11928,"rhydratant":11929,"rconfort":11930,"zones":11931,"##aint":11932,"##ycl":11933,"##zen":11934,"##chu":11935,"##rais":11936,"##icelle":11937,"biokap":11938,"##ineur":11939,"cay":11940,"##ierra":11941,"##euc":11942,"conce":11943,"mout":11944,"##liande":11945,"peace":11946,"complets":11947,"matcha":11948,"superfruits":11949,"piri":11950,"delarom":11951,"emp":11952,"gratins":11953,"schage":11954,"schtrou":11955,"avene":11956,"naturland":11957,"##ptu":11958,"##gaarden":11959,"fonta":11960,"eden":11961,"villages":11962,"lumiere":11963,"levain":11964,"friandise":11965,"ease":11966,"flexible":11967,"impact":11968,"respect":11969,"durance":11970,"dagave":11971,"brocliande":11972,"digital":11973,"imper":11974,"gueze":11975,"coussinets":11976,"padano":11977,"exfoliante":11978,"noodle":11979,"californ":11980,"yeti":11981,"hamburger":11982,"hoegaarden":11983,"proshield":11984,"airs":11985,"ebl":11986,"haren":11987,"milic":11988,"oge":11989,"piges":11990,"pistou":11991,"vigor":11992,"##iri":11993,"##ben":11994,"##gros":11995,"##isac":11996,"##atic":11997,"##atures":11998,"##elletti":11999,"sail":12000,"marti":12001,"anchois":12002,"freres":12003,"flas":12004,"##iva":12005,"dsal":12006,"seigle":12007,"labbaye":12008,"##graissant":12009,"malabar":12010,"pasteurise":12011,"##prox":12012,"series":12013,"kitchen":12014,"##flurin":12015,"kerisac":12016,"sangria":12017,"millions":12018,"oxygn":12019,"farfalles":12020,"raynal":12021,"contiec":12022,"ballotflurin":12023,"##gelein":12024,"##feuille":12025,"riegelein":12026,"purify":12027,"flambe":12028,"equilibre":12029,"castelli":12030,"pellicules":12031,"chartreuse":12032,"girasoli":12033,"tennessee":12034,"diverses":12035,"enrichi":12036,"efficientgrip":12037,"milical":12038,"ogeu":12039,"bom":12040,"ko":12041,"motte":12042,"nant":12043,"##los":12044,"##nne":12045,"##bul":12046,"##anier":12047,"##led":12048,"##red":12049,"##iter":12050,"##arti":12051,"##chig":12052,"##tement":12053,"##orange":12054,"##tian":12055,"##ical":12056,"##veau":12057,"##riz":12058,"spritz":12059,"##odel":12060,"##menthe":12061,"##oyant":12062,"barral":12063,"##inthe":12064,"blend":12065,"fabule":12066,"gru":12067,"senses":12068,"brieuc":12069,"loic":12070,"science":12071,"meme":12072,"whiskies":12073,"ppx":12074,"##prv":12075,"pullu":12076,"antipollution":12077,"##ollable":12078,"kitkat":12079,"louche":12080,"maquis":12081,"drable":12082,"balc":12083,"balance":12084,"tendri":12085,"antibactrienne":12086,"twinuts":12087,"marshm":12088,"flexi":12089,"bernier":12090,"joues":12091,"circul":12092,"incollable":12093,"crespo":12094,"muffins":12095,"cardhu":12096,"genepi":12097,"figuier":12098,"carapelli":12099,"charlotte":12100,"pullups":12101,"dpin":12102,"jon":12103,"nacre":12104,"pir":12105,"session":12106,"##lm":12107,"##ailes":12108,"##nay":12109,"##vrt":12110,"##kan":12111,"##atouch":12112,"##chou":12113,"##rad":12114,"chris":12115,"law":12116,"##entor":12117,"inde":12118,"mao":12119,"##eutic":12120,"##rico":12121,"pomlisse":12122,"claude":12123,"comte":12124,"croco":12125,"prunes":12126,"##tini":12127,"cans":12128,"cocottes":12129,"##ettle":12130,"miniatures":12131,"visible":12132,"vities":12133,"nov":12134,"noel":12135,"agis":12136,"ecr":12137,"##tarlier":12138,"##amed":12139,"##rells":12140,"cosmtiques":12141,"##olls":12142,"daluminium":12143,"##avela":12144,"popcorn":12145,"cepes":12146,"italie":12147,"lauvergnate":12148,"amber":12149,"fouett":12150,"radiance":12151,"trsors":12152,"pims":12153,"etrez":12154,"guerandais":12155,"dshydrates":12156,"rumors":12157,"semiperman":12158,"rvl":12159,"carabes":12160,"mondial":12161,"pesticides":12162,"sparad":12163,"cueillis":12164,"prothses":12165,"innovatouch":12166,"carthame":12167,"damandier":12168,"cayenne":12169,"christian":12170,"dco":12171,"gers":12172,"jap":12173,"klen":12174,"nink":12175,"tlr":12176,"uter":12177,"zest":12178,"##rouille":12179,"##ening":12180,"##rake":12181,"##alle":12182,"chron":12183,"##icaire":12184,"##asi":12185,"maria":12186,"marrake":12187,"conchig":12188,"lien":12189,"##opia":12190,"antibiotique":12191,"arle":12192,"artif":12193,"artichaut":12194,"citroncitron":12195,"cuticules":12196,"support":12197,"savons":12198,"##oiseau":12199,"tubo":12200,"traces":12201,"mixes":12202,"vgtar":12203,"lartisan":12204,"perfume":12205,"true":12206,"culinaire":12207,"camille":12208,"ecochard":12209,"jeanne":12210,"brunet":12211,"perfectrice":12212,"tyr":12213,"thermomtre":12214,"marcel":12215,"farci":12216,"russian":12217,"maintien":12218,"absorbante":12219,"authenti":12220,"collezione":12221,"rummo":12222,"other":12223,"pelletier":12224,"ayur":12225,"occitans":12226,"simplement":12227,"pontarlier":12228,"maximum":12229,"vapor":12230,"fiorini":12231,"##quelaure":12232,"maroilles":12233,"brazil":12234,"cassonade":12235,"cicabiafine":12236,"placentor":12237,"brumisateur":12238,"schtroump":12239,"balconi":12240,"##avelaar":12241,"ninkasi":12242,"marrakech":12243,"cello":12244,"drome":12245,"fett":12246,"fatig":12247,"iber":12248,"ka":12249,"md":12250,"mth":12251,"nacho":12252,"oroc":12253,"rpe":12254,"##lles":12255,"##til":12256,"##bing":12257,"##har":12258,"##inette":12259,"##etzle":12260,"##oclean":12261,"##omi":12262,"blc":12263,"chocon":12264,"short":12265,"splend":12266,"frqu":12267,"##life":12268,"fltes":12269,"lexpert":12270,"barnaise":12271,"##iens":12272,"matires":12273,"bask":12274,"briquettes":12275,"solid":12276,"viet":12277,"##black":12278,"montbli":12279,"manon":12280,"btons":12281,"cocktails":12282,"burgers":12283,"regilait":12284,"coiffeur":12285,"cappelletti":12286,"vieille":12287,"revitalisante":12288,"enrobe":12289,"escargot":12290,"imprial":12291,"temps":12292,"rsistants":12293,"playboy":12294,"rcur":12295,"universelle":12296,"depend":12297,"pommette":12298,"chapel":12299,"sousvtements":12300,"wasabi":12301,"bicrbnt":12302,"giffard":12303,"merlot":12304,"elastoplast":12305,"assainissant":12306,"paupire":12307,"multivarits":12308,"solaray":12309,"cecco":12310,"bau":12311,"bord":12312,"ful":12313,"get":12314,"krit":12315,"lle":12316,"tches":12317,"vabre":12318,"##een":12319,"##oble":12320,"##crt":12321,"##cience":12322,"##gard":12323,"##isun":12324,"##enx":12325,"##quer":12326,"##ams":12327,"biorig":12328,"##omy":12329,"##rire":12330,"##sives":12331,"##ateaux":12332,"boni":12333,"unifiant":12334,"maytea":12335,"cerf":12336,"herbesan":12337,"##beur":12338,"avant":12339,"ppito":12340,"suns":12341,"cuisinier":12342,"steack":12343,"geno":12344,"##hydrate":12345,"coqailes":12346,"##actif":12347,"pudd":12348,"kleenx":12349,"sheer":12350,"##burn":12351,"lubrifis":12352,"saumons":12353,"collector":12354,"dentalife":12355,"houmous":12356,"gnreux":12357,"bisque":12358,"oleo":12359,"lycat":12360,"vict":12361,"lourson":12362,"sultan":12363,"aigres":12364,"dodeurs":12365,"orset":12366,"airstop":12367,"chapelure":12368,"kriter":12369,"biorigine":12370,"584":12371,"594":12372,"684":12373,"694":12374,"784":12375,"794":12376,"884":12377,"894":12378,"984":12379,"994":12380,"ho":12381,"hn":12382,"havelaar":12383,"mur":12384,"nub":12385,"ponta":12386,"tron":12387,"##uor":12388,"##ni":12389,"##dia":12390,"##day":12391,"##itage":12392,"##illeurs":12393,"##illadou":12394,"limin":12395,"claires":12396,"##roni":12397,"1484":12398,"1494":12399,"1894":12400,"1984":12401,"2484":12402,"2494":12403,"2894":12404,"2984":12405,"3484":12406,"3494":12407,"3894":12408,"3984":12409,"4484":12410,"4494":12411,"4894":12412,"4984":12413,"pommepoire":12414,"prol":12415,"cura":12416,"volner":12417,"lavette":12418,"lavelinge":12419,"##ivit":12420,"mature":12421,"##onnelle":12422,"##rts":12423,"preiss":12424,"concass":12425,"nuoc":12426,"dual":12427,"epicure":12428,"campana":12429,"burrata":12430,"galli":12431,"satine":12432,"bledine":12433,"mercier":12434,"##clean":12435,"dhibiscus":12436,"cirio":12437,"dfense":12438,"agriculture":12439,"brasil":12440,"sibell":12441,"hansen":12442,"gratteponge":12443,"strtao":12444,"distri":12445,"##elyses":12446,"porridge":12447,"champselyses":12448,"candyup":12449,"gorron":12450,"cassolette":12451,"bifensis":12452,"antistress":12453,"prvention":12454,"tentation":12455,"rivieres":12456,"danniversaire":12457,"rnov":12458,"fontaine":12459,"contiecocontact":12460,"klenx":12461,"artific":12462,"vaporisateur":12463,"pontaven":12464,"aur":12465,"doo":12466,"epeautre":12467,"gusta":12468,"hg":12469,"kettle":12470,"pos":12471,"pcheur":12472,"rance":12473,"ttines":12474,"uef":12475,"##ford":12476,"##sar":12477,"##gaf":12478,"##kal":12479,"##rens":12480,"chilli":12481,"##acol":12482,"caill":12483,"##illre":12484,"carmin":12485,"poudr":12486,"cossais":12487,"cras":12488,"barista":12489,"barisun":12490,"##drenne":12491,"tablier":12492,"##issantes":12493,"sensual":12494,"onag":12495,"quets":12496,"labophy":12497,"castell":12498,"acacia":12499,"##usters":12500,"##vese":12501,"cerave":12502,"calgon":12503,"banania":12504,"skitt":12505,"chtaignier":12506,"##nty":12507,"paulette":12508,"tourteau":12509,"diffusion":12510,"suprieures":12511,"##othicaire":12512,"profiter":12513,"##ushion":12514,"baz":12515,"gnoise":12516,"##vely":12517,"prcuit":12518,"edmond":12519,"jungle":12520,"##frais":12521,"##diet":12522,"individuel":12523,"lapothicaire":12524,"##chalou":12525,"individuelles":12526,"##naises":12527,"chinoises":12528,"joubard":12529,"ovale":12530,"cassolettes":12531,"areilladou":12532,"meule":12533,"##ception":12534,"ombres":12535,"mythique":12536,"besacier":12537,"concealer":12538,"mthode":12539,"uefa":12540,"labophyto":12541,"band":12542,"cushion":12543,"fibre":12544,"gun":12545,"hor":12546,"hills":12547,"ict":12548,"kas":12549,"kate":12550,"mme":12551,"mys":12552,"rpr":12553,"sig":12554,"vas":12555,"wash":12556,"##iotte":12557,"##ters":12558,"##fil":12559,"##bit":12560,"##cd":12561,"##cane":12562,"##ount":12563,"##isf":12564,"##oose":12565,"progra":12566,"pouret":12567,"alga":12568,"paillettes":12569,"paella":12570,"##ondu":12571,"sally":12572,"hydrop":12573,"glaciale":12574,"babybel":12575,"sep":12576,"preparation":12577,"##ongles":12578,"aromatiss":12579,"##pirat":12580,"schr":12581,"effacl":12582,"dalla":12583,"##natura":12584,"sauvignon":12585,"discount":12586,"puce":12587,"margher":12588,"antica":12589,"dgk":12590,"cicat":12591,"epicea":12592,"striles":12593,"artesani":12594,"fuch":12595,"jeans":12596,"nioise":12597,"antiodeurs":12598,"venez":12599,"cantonais":12600,"disciplin":12601,"tendriade":12602,"arlequin":12603,"orocbat":12604,"montbliard":12605,"genovese":12606,"skittles":12607,"profiteroles":12608,"effaclar":12609,"margherita":12610,"aoli":12611,"kuh":12612,"oss":12613,"rcr":12614,"sic":12615,"sid":12616,"svel":12617,"##uja":12618,"##tant":12619,"##ych":12620,"##ollen":12621,"bir":12622,"##asure":12623,"sab":12624,"save":12625,"##agest":12626,"frachup":12627,"shar":12628,"##ult":12629,"alli":12630,"alnatura":12631,"glyc":12632,"peg":12633,"enrich":12634,"colores":12635,"volu":12636,"salvet":12637,"dorge":12638,"protein":12639,"yak":12640,"onf":12641,"vacher":12642,"varens":12643,"see":12644,"##tree":12645,"vetements":12646,"forest":12647,"dueler":12648,"gousses":12649,"aromatises":12650,"trip":12651,"blondpil":12652,"guil":12653,"damoiseau":12654,"finition":12655,"ress":12656,"naissante":12657,"mandarin":12658,"defense":12659,"rafra":12660,"plaquettes":12661,"##burger":12662,"confiseries":12663,"dcoloration":12664,"biberons":12665,"prpars":12666,"atopiderm":12667,"frangipanier":12668,"remodel":12669,"##oprotecteur":12670,"square":12671,"negroni":12672,"rutilis":12673,"rectangulaire":12674,"serpillire":12675,"falaf":12676,"manufacture":12677,"unidoses":12678,"nuevo":12679,"crumble":12680,"prmium":12681,"##chuan":12682,"sparadrap":12683,"tyrrells":12684,"hnaff":12685,"galliagest":12686,"ictyane":12687,"kuhne":12688,"eat":12689,"fag":12690,"hallow":12691,"mtb":12692,"xer":12693,"##lis":12694,"##loss":12695,"##rms":12696,"##vere":12697,"##ication":12698,"##omne":12699,"##issons":12700,"male":12701,"moule":12702,"minic":12703,"aper":12704,"beef":12705,"croquet":12706,"##adas":12707,"##adow":12708,"##irl":12709,"salades":12710,"amre":12711,"pochat":12712,"offrspcl":12713,"vedrenne":12714,"##rtn":12715,"provenal":12716,"nudes":12717,"pinot":12718,"ecran":12719,"merid":12720,"healt":12721,"##vities":12722,"formag":12723,"iglo":12724,"cleanance":12725,"thermal":12726,"gums":12727,"vivid":12728,"semelles":12729,"rondes":12730,"olo":12731,"multicorre":12732,"##ciu":12733,"tissus":12734,"dtente":12735,"napolitaine":12736,"restore":12737,"lustr":12738,"spirul":12739,"foam":12740,"semicomp":12741,"movies":12742,"attaches":12743,"tricolore":12744,"bruschet":12745,"perigord":12746,"maistres":12747,"ebly":12748,"vietnam":12749,"rcurer":12750,"##onduras":12751,"halloween":12752,"dett":12753,"meth":12754,"peu":12755,"rd":12756,"yarden":12757,"##yons":12758,"##zone":12759,"##ouin":12760,"##raft":12761,"##tech":12762,"##ionale":12763,"##issures":12764,"madre":12765,"frite":12766,"##ulateur":12767,"alain":12768,"mid":12769,"clusters":12770,"##liq":12771,"coings":12772,"antikal":12773,"##ida":12774,"lgret":12775,"canco":12776,"##refois":12777,"minima":12778,"fourme":12779,"moe":12780,"loseille":12781,"parisiennes":12782,"superdiet":12783,"##orces":12784,"##graisse":12785,"banana":12786,"montagn":12787,"dmaquillants":12788,"effect":12789,"grenache":12790,"reserva":12791,"toiles":12792,"renard":12793,"kirs":12794,"glossy":12795,"pyrene":12796,"alpilles":12797,"bulle":12798,"kiwis":12799,"bamboo":12800,"cellulite":12801,"mcvities":12802,"tradiz":12803,"nacomi":12804,"transit":12805,"digest":12806,"airwick":12807,"precision":12808,"illuminateur":12809,"vendome":12810,"germon":12811,"gorge":12812,"titanium":12813,"dautomne":12814,"ardeche":12815,"suprmes":12816,"distillerie":12817,"##prvnc":12818,"splendente":12819,"distribu":12820,"salvetat":12821,"healthy":12822,"gale":12823,"gala":12824,"gateaux":12825,"hop":12826,"ming":12827,"mister":12828,"nyl":12829,"ob":12830,"raz":12831,"##nst":12832,"##from":12833,"##jet":12834,"##roquettes":12835,"##amar":12836,"##oto":12837,"##ermont":12838,"##rices":12839,"paint":12840,"mouill":12841,"petitjean":12842,"coral":12843,"##ellini":12844,"corces":12845,"##ifie":12846,"mascul":12847,"matern":12848,"vitanove":12849,"forza":12850,"med":12851,"econ":12852,"calor":12853,"larges":12854,"montagnes":12855,"feel":12856,"fever":12857,"lamricaine":12858,"sacre":12859,"argasol":12860,"isau":12861,"fixative":12862,"##brun":12863,"symt":12864,"wear":12865,"pleasure":12866,"lastique":12867,"neutra":12868,"raffa":12869,"professionnelle":12870,"pepites":12871,"##istoff":12872,"eristoff":12873,"citronnier":12874,"nordic":12875,"encore":12876,"girl":12877,"bourguignon":12878,"dargent":12879,"##puy":12880,"chaleur":12881,"cloche":12882,"colomba":12883,"fleurettes":12884,"##cornets":12885,"##protect":12886,"tisanire":12887,"redensifiante":12888,"gascogne":12889,"attraction":12890,"nutrigloss":12891,"letrfl":12892,"vnus":12893,"drive":12894,"tidoo":12895,"virgin":12896,"nfera":12897,"imperial":12898,"programme":12899,"disciplinant":12900,"alliance":12901,"rafraich":12902,"lustrous":12903,"dettol":12904,"distributeur":12905,"cg":12906,"csar":12907,"dona":12908,"doig":12909,"ficelles":12910,"henne":12911,"honduras":12912,"lol":12913,"lines":12914,"vip":12915,"wai":12916,"##ups":12917,"##cou":12918,"##mr":12919,"##kers":12920,"##zac":12921,"##esta":12922,"##tiv":12923,"chilled":12924,"##uster":12925,"caen":12926,"lespresso":12927,"roulade":12928,"##ucette":12929,"brj":12930,"citronne":12931,"roquelaure":12932,"bleues":12933,"poa":12934,"intrieur":12935,"fourmis":12936,"confitur":12937,"quad":12938,"harris":12939,"sech":12940,"sept":12941,"trail":12942,"chiot":12943,"mayennais":12944,"##orgnl":12945,"dupuy":12946,"hei":12947,"montbel":12948,"blacks":12949,"guen":12950,"biscuite":12951,"respirat":12952,"isali":12953,"primer":12954,"regina":12955,"wei":12956,"##mmet":12957,"refermable":12958,"disque":12959,"monsieur":12960,"navettes":12961,"djaun":12962,"ambro":12963,"chipolata":12964,"brasseurs":12965,"brocciu":12966,"beyond":12967,"daubergine":12968,"animaux":12969,"phytosun":12970,"vsop":12971,"bonneterre":12972,"charentais":12973,"partir":12974,"gorronnaises":12975,"onagrine":12976,"fuchsia":12977,"attachesucette":12978,"cancoillotte":12979,"isautier":12980,"cica":12981,"gt":12982,"lv":12983,"local":12984,"lalie":12985,"rare":12986,"uhp":12987,"##utions":12988,"##ivre":12989,"##lad":12990,"##mosph":12991,"##hal":12992,"##kes":12993,"##inamb":12994,"##redo":12995,"##tet":12996,"bion":12997,"##ocanis":12998,"stollen":12999,"cave":13000,"protif":13001,"bout":13002,"clar":13003,"##ogy":13004,"biscotte":13005,"led":13006,"corbe":13007,"##iform":13008,"dessaint":13009,"lavoine":13010,"roches":13011,"brook":13012,"glacier":13013,"mouline":13014,"panes":13015,"quant":13016,"noble":13017,"dukan":13018,"poireau":13019,"dinosa":13020,"schs":13021,"grillades":13022,"garniture":13023,"linde":13024,"musque":13025,"roman":13026,"romaine":13027,"tiptree":13028,"bott":13029,"bertel":13030,"edel":13031,"antitrans":13032,"rapid":13033,"liftactiv":13034,"copines":13035,"ptisserie":13036,"multicroquettes":13037,"piquill":13038,"hyaluronic":13039,"complex":13040,"fritelle":13041,"vendee":13042,"ovales":13043,"transparen":13044,"lambrus":13045,"primevere":13046,"guimauves":13047,"tigres":13048,"hydralin":13049,"equilib":13050,"optimal":13051,"luxur":13052,"##royable":13053,"akilene":13054,"huilerie":13055,"##xtrme":13056,"rigatoni":13057,"lavandin":13058,"jaillance":13059,"restructurant":13060,"schtroumpfs":13061,"##gafredo":13062,"dallaitement":13063,"method":13064,"montbeli":13065,"protifast":13066,"lambrusco":13067,"aix":13068,"gateau":13069,"nam":13070,"race":13071,"##oral":13072,"##iana":13073,"##td":13074,"##fizz":13075,"##cil":13076,"##mangue":13077,"##hin":13078,"##jamb":13079,"##estes":13080,"##ator":13081,"##rod":13082,"##roach":13083,"##amyl":13084,"##oco":13085,"##entes":13086,"stout":13087,"##iete":13088,"shmpng":13089,"plt":13090,"minib":13091,"antiallerg":13092,"leon":13093,"leaf":13094,"barrel":13095,"dorante":13096,"##unis":13097,"##ialyse":13098,"grise":13099,"brient":13100,"paniers":13101,"dentamyl":13102,"morgan":13103,"##ousier":13104,"surdoux":13105,"darje":13106,"capellini":13107,"antroach":13108,"financ":13109,"gelee":13110,"poly":13111,"##ontour":13112,"denivit":13113,"genivre":13114,"energisant":13115,"fixant":13116,"frozen":13117,"topialyse":13118,"lgrement":13119,"moyengros":13120,"thermo":13121,"princess":13122,"chevreuil":13123,"paisseur":13124,"##zyme":13125,"gommant":13126,"soya":13127,"treat":13128,"henriette":13129,"torsettes":13130,"laneth":13131,"rgulateur":13132,"grattante":13133,"faug":13134,"porte":13135,"##myrt":13136,"spaetzle":13137,"pancetta":13138,"phytoclear":13139,"toofruit":13140,"prodigieuse":13141,"courts":13142,"##schild":13143,"dsincrustant":13144,"vetocanis":13145,"hollandaise":13146,"martiderm":13147,"castellane":13148,"spiruline":13149,"raffaello":13150,"quantum":13151,"brig":13152,"ef":13153,"lup":13154,"tul":13155,"tino":13156,"##ex":13157,"##off":13158,"##mers":13159,"##hson":13160,"##herb":13161,"##rev":13162,"chateau":13163,"aura":13164,"marvis":13165,"##euze":13166,"bounty":13167,"pommer":13168,"glifiant":13169,"apero":13170,"leff":13171,"##iene":13172,"grappe":13173,"lavables":13174,"##ibio":13175,"amiotte":13176,"taches":13177,"protege":13178,"##cts":13179,"##agneau":13180,"estragon":13181,"segafredo":13182,"fruity":13183,"ack":13184,"pipe":13185,"cernes":13186,"topinamb":13187,"hypoallergen":13188,"launay":13189,"##iki":13190,"pepp":13191,"##assis":13192,"limonc":13193,"strilisation":13194,"dtoxifiant":13195,"divin":13196,"clubbing":13197,"fluocar":13198,"quotidienne":13199,"quenelle":13200,"##amlis":13201,"dfi":13202,"tetes":13203,"lambic":13204,"florent":13205,"biodgradable":13206,"##dlice":13207,"ronan":13208,"rsidu":13209,"ditalie":13210,"stimulant":13211,"##passion":13212,"maurice":13213,"dardche":13214,"lyophilis":13215,"rothschild":13216,"dsaltrant":13217,"fabuleux":13218,"jonhson":13219,"ecrinal":13220,"limination":13221,"symtrique":13222,"darjeeling":13223,"fluocaril":13224,"aide":13225,"dillon":13226,"eto":13227,"fros":13228,"kick":13229,"mate":13230,"piss":13231,"warm":13232,"zestes":13233,"##cisseur":13234,"##mix":13235,"##gues":13236,"##wn":13237,"##urus":13238,"##ged":13239,"##oif":13240,"##leton":13241,"##inga":13242,"##illard":13243,"sodium":13244,"frits":13245,"##ised":13246,"apaise":13247,"comb":13248,"thu":13249,"bow":13250,"amoureux":13251,"pts":13252,"##hem":13253,"##main":13254,"galets":13255,"uni":13256,"solutions":13257,"trappe":13258,"vitroc":13259,"papillon":13260,"##pliers":13261,"rghalal":13262,"dartichaut":13263,"chipster":13264,"duch":13265,"coslys":13266,"cosmtique":13267,"eygue":13268,"##ptyl":13269,"melfor":13270,"cornet":13271,"touten":13272,"maui":13273,"marca":13274,"dmlante":13275,"dlicieux":13276,"cpres":13277,"bigou":13278,"moussaka":13279,"treo":13280,"dcolorante":13281,"poitrine":13282,"naturellement":13283,"endur":13284,"biosilk":13285,"brulees":13286,"hanout":13287,"redensifiant":13288,"houbl":13289,"odeurs":13290,"guillou":13291,"bigarade":13292,"aquasource":13293,"##nedos":13294,"codex":13295,"airelles":13296,"meteor":13297,"bombe":13298,"falafels":13299,"meridol":13300,"montbeliard":13301,"bella":13302,"baker":13303,"codoses":13304,"fj":13305,"jal":13306,"kil":13307,"krie":13308,"lxl":13309,"ora":13310,"pret":13311,"tz":13312,"tir":13313,"##oit":13314,"##ration":13315,"##mam":13316,"##kiss":13317,"##inom":13318,"##isph":13319,"##tiges":13320,"biais":13321,"crperie":13322,"##abac":13323,"##oso":13324,"##osits":13325,"##uid":13326,"##odys":13327,"verfeuille":13328,"##livet":13329,"potpot":13330,"flower":13331,"combiotic":13332,"rouls":13333,"coques":13334,"baron":13335,"masala":13336,"robert":13337,"ultr":13338,"picodon":13339,"elct":13340,"self":13341,"loz":13342,"##ally":13343,"prev":13344,"sichuan":13345,"pich":13346,"emolli":13347,"ecreme":13348,"##talc":13349,"heal":13350,"esprit":13351,"antilles":13352,"premiumcontact":13353,"tourette":13354,"pull":13355,"royans":13356,"nourrissons":13357,"tournedos":13358,"isisph":13359,"##oxy":13360,"aquap":13361,"camden":13362,"bouchee":13363,"freeze":13364,"lastiques":13365,"ambal":13366,"##gator":13367,"alternative":13368,"cherier":13369,"mosa":13370,"alfred":13371,"imperfections":13372,"rayon":13373,"##weiss":13374,"ramen":13375,"listel":13376,"exquis":13377,"andalouse":13378,"nutricolor":13379,"relipidant":13380,"wonderful":13381,"langoustines":13382,"lawsons":13383,"authentiques":13384,"solidrim":13385,"fulgator":13386,"pudding":13387,"rnovateur":13388,"formaggi":13389,"ackerman":13390,"eyguebelle":13391,"codexial":13392,"bakeries":13393,"fjord":13394,"potpotam":13395,"isispharma":13396,"dut":13397,"eti":13398,"ges":13399,"gab":13400,"hoo":13401,"hard":13402,"jim":13403,"lec":13404,"macon":13405,"mertz":13406,"ps":13407,"west":13408,"##oba":13409,"##ii":13410,"##fert":13411,"##bd":13412,"##cad":13413,"##ster":13414,"##phe":13415,"##lex":13416,"##itif":13417,"##raph":13418,"bie":13419,"##omal":13420,"##nement":13421,"mare":13422,"spe":13423,"algo":13424,"lige":13425,"glo":13426,"rele":13427,"reve":13428,"##aiselle":13429,"arti":13430,"supre":13431,"##ralose":13432,"pures":13433,"##stru":13434,"##monts":13435,"mulot":13436,"vitre":13437,"lingots":13438,"concasses":13439,"acorelle":13440,"pile":13441,"diab":13442,"repare":13443,"palais":13444,"catisf":13445,"sourcil":13446,"##flrd":13447,"galibier":13448,"subite":13449,"madras":13450,"romans":13451,"balisto":13452,"laser":13453,"mandar":13454,"exomega":13455,"orezza":13456,"glenlivet":13457,"relaxation":13458,"styling":13459,"durcisseur":13460,"oxygen":13461,"norvgienne":13462,"effervescents":13463,"khne":13464,"tadam":13465,"raffermissante":13466,"worldcrt":13467,"anatomiques":13468,"pommade":13469,"allergo":13470,"limousin":13471,"hdg":13472,"nutriextrme":13473,"demilune":13474,"porcelaine":13475,"lumineux":13476,"rvlateur":13477,"frquent":13478,"enrichie":13479,"##liqd":13480,"kirsch":13481,"ambrosi":13482,"faugier":13483,"frosties":13484,"kriek":13485,"545":13486,"585":13487,"595":13488,"645":13489,"685":13490,"695":13491,"745":13492,"785":13493,"795":13494,"845":13495,"885":13496,"895":13497,"945":13498,"985":13499,"995":13500,"bos":13501,"bitter":13502,"camel":13503,"even":13504,"gwen":13505,"goose":13506,"hal":13507,"hut":13508,"ken":13509,"prat":13510,"samp":13511,"soire":13512,"wer":13513,"yab":13514,"##aiss":13515,"##fa":13516,"##cent":13517,"##comp":13518,"##grat":13519,"##leveurs":13520,"##arn":13521,"##atz":13522,"##old":13523,"##veda":13524,"##umm":13525,"bldiner":13526,"cacha":13527,"inv":13528,"soba":13529,"lif":13530,"claf":13531,"##ope":13532,"flr":13533,"##ersp":13534,"peard":13535,"pechalou":13536,"sucralose":13537,"1485":13538,"1495":13539,"1845":13540,"1895":13541,"1945":13542,"1985":13543,"2485":13544,"2495":13545,"2845":13546,"2895":13547,"2945":13548,"2985":13549,"3485":13550,"3495":13551,"3845":13552,"3895":13553,"3945":13554,"3985":13555,"4485":13556,"4495":13557,"4845":13558,"4895":13559,"4945":13560,"4985":13561,"temp":13562,"artic":13563,"colorants":13564,"##adouce":13565,"##outis":13566,"salve":13567,"taw":13568,"tabs":13569,"##ivie":13570,"explos":13571,"##ector":13572,"##kaes":13573,"trapp":13574,"glacee":13575,"herbe":13576,"agur":13577,"longcils":13578,"##ixenet":13579,"antitabac":13580,"naturally":13581,"regener":13582,"genou":13583,"sanodiane":13584,"weet":13585,"baton":13586,"domin":13587,"##aked":13588,"taste":13589,"craquante":13590,"vermicelle":13591,"oligo":13592,"soyeuse":13593,"boudoirs":13594,"forestires":13595,"rivadouce":13596,"muscador":13597,"favor":13598,"robin":13599,"rieme":13600,"##zelay":13601,"berlingots":13602,"cachaca":13603,"chiffonade":13604,"jockey":13605,"cinq":13606,"maoam":13607,"choconois":13608,"bazin":13609,"sveltesse":13610,"masculin":13611,"dinosaurus":13612,"werner":13613,"cachaa":13614,"clafoutis":13615,"cut":13616,"dif":13617,"dner":13618,"foies":13619,"gyn":13620,"hello":13621,"oh":13622,"pis":13623,"vins":13624,"vite":13625,"##iett":13626,"##nou":13627,"##poul":13628,"##joux":13629,"##ernet":13630,"##ischer":13631,"##aria":13632,"##ilift":13633,"##alm":13634,"chamb":13635,"##icie":13636,"##ota":13637,"start":13638,"laitier":13639,"##ieuses":13640,"fraich":13641,"doudou":13642,"##illaise":13643,"carrel":13644,"proactiv":13645,"sopl":13646,"bouff":13647,"desert":13648,"craft":13649,"fleuri":13650,"cocotte":13651,"##inture":13652,"dors":13653,"mates":13654,"fiesta":13655,"chatel":13656,"##trem":13657,"##trol":13658,"demoiselle":13659,"menstru":13660,"buchette":13661,"dcap":13662,"gratine":13663,"filou":13664,"jacque":13665,"rtie":13666,"##bisol":13667,"renf":13668,"freixenet":13669,"phosph":13670,"satm":13671,"tender":13672,"bories":13673,"tapis":13674,"italiennes":13675,"societe":13676,"proskin":13677,"asiago":13678,"response":13679,"corporelle":13680,"tetra":13681,"acidul":13682,"depices":13683,"lambertz":13684,"epiler":13685,"germe":13686,"insert":13687,"aquatube":13688,"millsim":13689,"##basilic":13690,"mungo":13691,"moutard":13692,"iberico":13693,"peguet":13694,"voluptu":13695,"peupliers":13696,"##mosphre":13697,"lindemans":13698,"bottles":13699,"maconnais":13700,"boi":13701,"eaux":13702,"fic":13703,"fischer":13704,"ging":13705,"hon":13706,"hell":13707,"jade":13708,"nui":13709,"nyons":13710,"oura":13711,"oval":13712,"serie":13713,"vector":13714,"willy":13715,"##yque":13716,"##fusion":13717,"##dus":13718,"##sac":13719,"##chis":13720,"##elins":13721,"cho":13722,"##rosse":13723,"##asne":13724,"##omates":13725,"crus":13726,"blinis":13727,"##ampi":13728,"ana":13729,"spark":13730,"fromager":13731,"senoble":13732,"ths":13733,"brl":13734,"supra":13735,"##anga":13736,"addic":13737,"##angeaison":13738,"greek":13739,"##ablend":13740,"superwhite":13741,"vitak":13742,"mixed":13743,"##dae":13744,"duches":13745,"mey":13746,"emiett":13747,"recyc":13748,"velay":13749,"largan":13750,"dermablend":13751,"nouille":13752,"linc":13753,"ricard":13754,"tuv":13755,"##ombres":13756,"asie":13757,"##uela":13758,"tendresse":13759,"dcolorant":13760,"ocane":13761,"##biata":13762,"illuminant":13763,"bavoir":13764,"##protection":13765,"gascoun":13766,"rsidus":13767,"grosseur":13768,"givr":13769,"bonheur":13770,"aigresdoux":13771,"sechoir":13772,"thuasne":13773,"catisfactions":13774,"favorite":13775,"boiron":13776,"ouragan":13777,"bus":13778,"bghin":13779,"dul":13780,"mumm":13781,"pesc":13782,"sduction":13783,"vid":13784,"##ipe":13785,"##noir":13786,"##bou":13787,"##mout":13788,"##pers":13789,"##zier":13790,"##rax":13791,"##orge":13792,"##ourr":13793,"shake":13794,"lesp":13795,"lescabche":13796,"rehydrate":13797,"##rone":13798,"##liflore":13799,"minions":13800,"apiv":13801,"coudes":13802,"##ondant":13803,"beach":13804,"##elly":13805,"extras":13806,"croz":13807,"voland":13808,"devant":13809,"debro":13810,"polette":13811,"moza":13812,"gaec":13813,"elise":13814,"infant":13815,"babyliss":13816,"perac":13817,"provit":13818,"lingerie":13819,"croquantes":13820,"buche":13821,"allges":13822,"meg":13823,"pattes":13824,"espaces":13825,"stickers":13826,"sundae":13827,"india":13828,"iced":13829,"jose":13830,"##ffee":13831,"subtil":13832,"ambree":13833,"##racare":13834,"cabernet":13835,"baign":13836,"##iakid":13837,"paupiette":13838,"nutrire":13839,"mauny":13840,"pastille":13841,"feuilletes":13842,"decosse":13843,"##ethic":13844,"craquelins":13845,"pediakid":13846,"grisons":13847,"gross":13848,"fantas":13849,"elastic":13850,"##chalotes":13851,"##dical":13852,"boucls":13853,"absorbants":13854,"##encia":13855,"peanuts":13856,"celliflore":13857,"funethic":13858,"charcutire":13859,"##liner":13860,"vibrant":13861,"precise":13862,"chimay":13863,"forestieres":13864,"foret":13865,"chvx":13866,"mogettes":13867,"mollient":13868,"pecan":13869,"fondamental":13870,"conchiglie":13871,"nylon":13872,"antiallergnes":13873,"mandarines":13874,"tawny":13875,"explosion":13876,"##poulard":13877,"nuii":13878,"vitakraft":13879,"debroas":13880,"557":13881,"547":13882,"587":13883,"597":13884,"657":13885,"647":13886,"687":13887,"697":13888,"757":13889,"747":13890,"787":13891,"797":13892,"857":13893,"847":13894,"887":13895,"897":13896,"957":13897,"947":13898,"987":13899,"997":13900,"dme":13901,"dind":13902,"dange":13903,"eps":13904,"ionnelle":13905,"nik":13906,"oen":13907,"pun":13908,"pont":13909,"rtis":13910,"war":13911,"yun":13912,"##nyl":13913,"##house":13914,"##hrapie":13915,"##poi":13916,"##prop":13917,"##chr":13918,"##aufeu":13919,"##dea":13920,"anto":13921,"##ulo":13922,"##andon":13923,"destructeur":13924,"potaufeu":13925,"##idsie":13926,"1457":13927,"1487":13928,"1497":13929,"1857":13930,"1847":13931,"1897":13932,"1957":13933,"1947":13934,"1987":13935,"2457":13936,"2487":13937,"2497":13938,"2857":13939,"2847":13940,"2897":13941,"2957":13942,"2947":13943,"2987":13944,"3457":13945,"3487":13946,"3497":13947,"3857":13948,"3847":13949,"3897":13950,"3957":13951,"3947":13952,"3987":13953,"4457":13954,"4487":13955,"4497":13956,"4857":13957,"4847":13958,"4897":13959,"4957":13960,"4947":13961,"4987":13962,"comparti":13963,"pommeau":13964,"artinables":13965,"grammes":13966,"ama":13967,"poches":13968,"matiere":13969,"unyque":13970,"lotsm":13971,"seych":13972,"provamel":13973,"##erepoulard":13974,"bourdon":13975,"ajinom":13976,"darach":13977,"lamerepoulard":13978,"##flor":13979,"cultiv":13980,"microtalc":13981,"##obiol":13982,"assiettes":13983,"declat":13984,"gommante":13985,"asimmet":13986,"tigi":13987,"azay":13988,"dambert":13989,"folie":13990,"optimale":13991,"attrape":13992,"rape":13993,"sakari":13994,"spaghettis":13995,"arthur":13996,"queen":13997,"scoub":13998,"sebamed":13999,"irrsistibles":14000,"circulation":14001,"artificiel":14002,"endurance":14003,"invigo":14004,"nikka":14005,"oenobiol":14006,"##idsieck":14007,"ajinomoto":14008,"asimmetrico":14009,"bert":14010,"bacti":14011,"cible":14012,"duster":14013,"eu":14014,"fess":14015,"gine":14016,"himalaya":14017,"leucalyptus":14018,"mcher":14019,"oak":14020,"pm":14021,"post":14022,"rable":14023,"##over":14024,"##iches":14025,"##aps":14026,"##cza":14027,"##cissante":14028,"##crales":14029,"##men":14030,"##anon":14031,"##reizh":14032,"##olic":14033,"##row":14034,"##aumon":14035,"bik":14036,"##ingue":14037,"frapp":14038,"marb":14039,"ange":14040,"natracare":14041,"caram":14042,"inel":14043,"ingr":14044,"##euille":14045,"sprite":14046,"fron":14047,"##opure":14048,"gelato":14049,"##instant":14050,"compost":14051,"boncza":14052,"canad":14053,"rougeurs":14054,"fabrique":14055,"savnn":14056,"savencia":14057,"mattin":14058,"basic":14059,"looney":14060,"origin":14061,"sculp":14062,"mamma":14063,"crudit":14064,"darme":14065,"durac":14066,"duvel":14067,"##tose":14068,"aromathrapie":14069,"faisselles":14070,"##lyp":14071,"scher":14072,"knock":14073,"henn":14074,"stevia":14075,"poliak":14076,"rties":14077,"fixateur":14078,"vallee":14079,"marmande":14080,"snior":14081,"dragon":14082,"##brush":14083,"laveyron":14084,"cabri":14085,"popp":14086,"battu":14087,"tendances":14088,"laurent":14089,"laubrac":14090,"craquants":14091,"cantonnais":14092,"grose":14093,"luf":14094,"estle":14095,"##caps":14096,"##beles":14097,"jouvence":14098,"azzura":14099,"printanier":14100,"scorpion":14101,"delicato":14102,"oursons":14103,"carabreizh":14104,"allaitement":14105,"dambiance":14106,"coudene":14107,"lonctu":14108,"deglet":14109,"physiolac":14110,"commerce":14111,"platinum":14112,"leroux":14113,"renforc":14114,"mozarella":14115,"duracell":14116,"poliakov":14117,"boy":14118,"cyn":14119,"dim":14120,"deucalyptus":14121,"ech":14122,"epl":14123,"jelly":14124,"lals":14125,"noy":14126,"ptale":14127,"pigment":14128,"somm":14129,"tunis":14130,"vous":14131,"##oom":14132,"##oeuf":14133,"##fons":14134,"##bil":14135,"##biafine":14136,"##cous":14137,"##roux":14138,"##hl":14139,"##hanc":14140,"##zze":14141,"##onia":14142,"##erons":14143,"##erence":14144,"##reau":14145,"chene":14146,"##amande":14147,"##med":14148,"sains":14149,"##ingu":14150,"##ingr":14151,"##onsard":14152,"shr":14153,"spt":14154,"colab":14155,"gly":14156,"park":14157,"mouche":14158,"mlanges":14159,"bee":14160,"barrettes":14161,"barrire":14162,"thal":14163,"roast":14164,"monkey":14165,"sensuel":14166,"frambois":14167,"quer":14168,"escale":14169,"danchois":14170,"nutril":14171,"concombres":14172,"acides":14173,"recycl":14174,"##phan":14175,"orgas":14176,"cooked":14177,"ricor":14178,"fouet":14179,"lyre":14180,"lyonnaise":14181,"japonaise":14182,"crisps":14183,"radial":14184,"italiens":14185,"rpul":14186,"dfatig":14187,"naturesun":14188,"breizhpom":14189,"hommes":14190,"automatic":14191,"ltouff":14192,"peluches":14193,"sbium":14194,"##icious":14195,"brewery":14196,"##ioso":14197,"fuze":14198,"autobronzante":14199,"torrfi":14200,"ventoux":14201,"chunks":14202,"nutrigrain":14203,"caraibos":14204,"synerg":14205,"inspiration":14206,"swimmers":14207,"savoureuse":14208,"gruyre":14209,"pirulo":14210,"seeberger":14211,"septfons":14212,"lvly":14213,"edelweiss":14214,"yabon":14215,"lincroyable":14216,"baignoire":14217,"darachide":14218,"gineys":14219,"ineldea":14220,"ingrdients":14221,"##lypts":14222,"lalsacienne":14223,"ane":14224,"eur":14225,"fas":14226,"fai":14227,"jec":14228,"lig":14229,"pig":14230,"pive":14231,"xrs":14232,"##las":14233,"##lav":14234,"##nica":14235,"##yx":14236,"##cellence":14237,"##gout":14238,"##anie":14239,"##oniaque":14240,"chut":14241,"chub":14242,"chrome":14243,"bibeles":14244,"##dega":14245,"##ranourr":14246,"indes":14247,"paes":14248,"bouv":14249,"##oper":14250,"rouget":14251,"coudre":14252,"bodega":14253,"##ifis":14254,"fleurance":14255,"volants":14256,"##ibres":14257,"amoniaque":14258,"crepe":14259,"cretet":14260,"ultrahydratant":14261,"infini":14262,"granium":14263,"demk":14264,"demie":14265,"##plus":14266,"allonge":14267,"dcol":14268,"larme":14269,"capris":14270,"antillais":14271,"nourissant":14272,"##verse":14273,"traditionn":14274,"##prolls":14275,"antipell":14276,"legend":14277,"diffus":14278,"bolivie":14279,"frees":14280,"optic":14281,"cedrat":14282,"tunes":14283,"tuoch":14284,"bath":14285,"souffles":14286,"sarments":14287,"liftant":14288,"blueberry":14289,"chouffe":14290,"miraculous":14291,"##ksh":14292,"imperm":14293,"##vennes":14294,"cellier":14295,"cavailles":14296,"##burys":14297,"ruban":14298,"fibral":14299,"felicie":14300,"absorbantes":14301,"moment":14302,"pyrn":14303,"fosses":14304,"sensibilite":14305,"ciga":14306,"quilibre":14307,"knepf":14308,"krisprolls":14309,"phytoceutic":14310,"immun":14311,"cigalines":14312,"actilift":14313,"julienne":14314,"exquise":14315,"heritage":14316,"antiirritations":14317,"island":14318,"ribot":14319,"appareil":14320,"triangle":14321,"illy":14322,"fragiliss":14323,"dpinards":14324,"vacherin":14325,"trailterrain":14326,"##jambon":14327,"etoiles":14328,"tzatz":14329,"mosaque":14330,"knockando":14331,"sainsburys":14332,"jeca":14333,"piveteau":14334,"bibeleskaes":14335,"caprisun":14336,"tuocha":14337,"fire":14338,"feste":14339,"gent":14340,"mrid":14341,"rab":14342,"stella":14343,"tia":14344,"tire":14345,"une":14346,"vign":14347,"villa":14348,"vignes":14349,"##yka":14350,"##but":14351,"##bib":14352,"##cassis":14353,"##rantes":14354,"##mart":14355,"##inato":14356,"##arg":14357,"##tem":14358,"##urros":14359,"##ault":14360,"##antine":14361,"##omfort":14362,"anneaux":14363,"##illac":14364,"frisson":14365,"##ulseur":14366,"autour":14367,"colib":14368,"##romasseur":14369,"clous":14370,"glaz":14371,"mousses":14372,"minest":14373,"sencha":14374,"crali":14375,"barber":14376,"grav":14377,"##adour":14378,"##aderm":14379,"ulric":14380,"##apais":14381,"secours":14382,"intol":14383,"lovely":14384,"seches":14385,"sensifine":14386,"##allosits":14387,"vinyl":14388,"##isker":14389,"multifruit":14390,"gould":14391,"##lenda":14392,"patyka":14393,"aven":14394,"antillaise":14395,"gourmandises":14396,"hygiene":14397,"denoyau":14398,"genius":14399,"ecossais":14400,"barbara":14401,"##bration":14402,"elements":14403,"bledidej":14404,"alelor":14405,"cuvee":14406,"talisker":14407,"extrafines":14408,"olvr":14409,"##naie":14410,"easygel":14411,"gallery":14412,"richesmonts":14413,"transform":14414,"amanddc":14415,"bubbl":14416,"glifie":14417,"endives":14418,"vibromasseur":14419,"arko":14420,"jolie":14421,"strips":14422,"dautrefois":14423,"freschi":14424,"pingui":14425,"appareils":14426,"janville":14427,"poreless":14428,"california":14429,"nuby":14430,"venezuela":14431,"##fromage":14432,"bright":14433,"health":14434,"bielenda":14435,"hutres":14436,"lotsmlt":14437,"tzatziki":14438,"festein":14439,"colibri":14440,"minestrone":14441,"cy":14442,"erable":14443,"gio":14444,"hay":14445,"linstant":14446,"ot":14447,"ome":14448,"ups":14449,"way":14450,"wave":14451,"##fac":14452,"##mette":14453,"##gres":14454,"##prat":14455,"##isot":14456,"##ati":14457,"##ends":14458,"##alisse":14459,"chasse":14460,"chandon":14461,"##aclear":14462,"saine":14463,"##abil":14464,"carta":14465,"cardam":14466,"shop":14467,"congel":14468,"pliz":14469,"##iseptyl":14470,"antigrat":14471,"lechamp":14472,"team":14473,"pror":14474,"saloir":14475,"##hed":14476,"adip":14477,"esc":14478,"##nish":14479,"vezelay":14480,"tenseur":14481,"##alessence":14482,"##orgulateur":14483,"##plex":14484,"agane":14485,"ecosse":14486,"garbit":14487,"##lyn":14488,"heures":14489,"duck":14490,"mani":14491,"neige":14492,"genie":14493,"toffee":14494,"cornetto":14495,"phare":14496,"draineur":14497,"##colique":14498,"sorbets":14499,"##gnon":14500,"ricq":14501,"frial":14502,"elev":14503,"contact":14504,"dmnt":14505,"edam":14506,"freez":14507,"cuban":14508,"puy":14509,"sarlad":14510,"singleton":14511,"deca":14512,"violettes":14513,"lydog":14514,"radler":14515,"affine":14516,"phytalessence":14517,"impermable":14518,"rucher":14519,"assaisonn":14520,"##ensitive":14521,"armor":14522,"botanique":14523,"reconstructeur":14524,"chamois":14525,"lusit":14526,"lisb":14527,"annayake":14528,"islay":14529,"dipl":14530,"surface":14531,"pandoro":14532,"meunire":14533,"##bulles":14534,"chrono":14535,"fettucc":14536,"baskalia":14537,"glycrine":14538,"mandarinier":14539,"respiratoire":14540,"brooklyn":14541,"efiseptyl":14542,"reveal":14543,"artigian":14544,"supremo":14545,"gwenn":14546,"difrax":14547,
[...]
